{
  "version": "1.0",
  "truncation": null,
  "padding": null,
  "added_tokens": [
    {
      "id": 0,
      "content": "<|endoftext|>",
      "single_word": false,
      "lstrip": false,
      "rstrip": false,
      "normalized": false,
      "special": true
    },
    {
      "id": 1,
      "content": "<|padding|>",
      "single_word": false,
      "lstrip": false,
      "rstrip": false,
      "normalized": false,
      "special": true
    }
  ],
  "normalizer": null,
  "pre_tokenizer": {
    "type": "ByteLevel",
    "add_prefix_space": false,
    "trim_offsets": true,
    "use_regex": true
  },
  "post_processor": {
    "type": "ByteLevel",
    "add_prefix_space": true,
    "trim_offsets": false,
    "use_regex": true
  },
  "decoder": {
    "type": "ByteLevel",
    "add_prefix_space": true,
    "trim_offsets": true,
    "use_regex": true
  },
  "model": {
    "type": "BPE",
    "dropout": null,
    "unk_token": null,
    "continuing_subword_prefix": null,
    "end_of_word_suffix": null,
    "fuse_unk": false,
    "byte_fallback": false,
    "ignore_merges": false,
    "vocab": {
      "<|endoftext|>": 0,
      "<|padding|>": 1,
      "!": 2,
      "\"": 3,
      "#": 4,
      "$": 5,
      "%": 6,
      "&": 7,
      "'": 8,
      "(": 9,
      ")": 10,
      "*": 11,
      "+": 12,
      ",": 13,
      "-": 14,
      ".": 15,
      "/": 16,
      "0": 17,
      "1": 18,
      "2": 19,
      "3": 20,
      "4": 21,
      "5": 22,
      "6": 23,
      "7": 24,
      "8": 25,
      "9": 26,
      ":": 27,
      ";": 28,
      "<": 29,
      "=": 30,
      ">": 31,
      "?": 32,
      "@": 33,
      "A": 34,
      "B": 35,
      "C": 36,
      "D": 37,
      "E": 38,
      "F": 39,
      "G": 40,
      "H": 41,
      "I": 42,
      "J": 43,
      "K": 44,
      "L": 45,
      "M": 46,
      "N": 47,
      "O": 48,
      "P": 49,
      "Q": 50,
      "R": 51,
      "S": 52,
      "T": 53,
      "U": 54,
      "V": 55,
      "W": 56,
      "X": 57,
      "Y": 58,
      "Z": 59,
      "[": 60,
      "\\": 61,
      "]": 62,
      "^": 63,
      "_": 64,
      "`": 65,
      "a": 66,
      "b": 67,
      "c": 68,
      "d": 69,
      "e": 70,
      "f": 71,
      "g": 72,
      "h": 73,
      "i": 74,
      "j": 75,
      "k": 76,
      "l": 77,
      "m": 78,
      "n": 79,
      "o": 80,
      "p": 81,
      "q": 82,
      "r": 83,
      "s": 84,
      "t": 85,
      "u": 86,
      "v": 87,
      "w": 88,
      "x": 89,
      "y": 90,
      "z": 91,
      "{": 92,
      "|": 93,
      "}": 94,
      "~": 95,
      "¡": 96,
      "¢": 97,
      "£": 98,
      "¤": 99,
      "¥": 100,
      "¦": 101,
      "§": 102,
      "¨": 103,
      "©": 104,
      "ª": 105,
      "«": 106,
      "¬": 107,
      "®": 108,
      "¯": 109,
      "°": 110,
      "±": 111,
      "²": 112,
      "³": 113,
      "´": 114,
      "µ": 115,
      "¶": 116,
      "·": 117,
      "¸": 118,
      "¹": 119,
      "º": 120,
      "»": 121,
      "¼": 122,
      "½": 123,
      "¾": 124,
      "¿": 125,
      "À": 126,
      "Á": 127,
      "Â": 128,
      "Ã": 129,
      "Ä": 130,
      "Å": 131,
      "Æ": 132,
      "Ç": 133,
      "È": 134,
      "É": 135,
      "Ê": 136,
      "Ë": 137,
      "Ì": 138,
      "Í": 139,
      "Î": 140,
      "Ï": 141,
      "Ð": 142,
      "Ñ": 143,
      "Ò": 144,
      "Ó": 145,
      "Ô": 146,
      "Õ": 147,
      "Ö": 148,
      "×": 149,
      "Ø": 150,
      "Ù": 151,
      "Ú": 152,
      "Û": 153,
      "Ü": 154,
      "Ý": 155,
      "Þ": 156,
      "ß": 157,
      "à": 158,
      "á": 159,
      "â": 160,
      "ã": 161,
      "ä": 162,
      "å": 163,
      "æ": 164,
      "ç": 165,
      "è": 166,
      "é": 167,
      "ê": 168,
      "ë": 169,
      "ì": 170,
      "í": 171,
      "î": 172,
      "ï": 173,
      "ð": 174,
      "ñ": 175,
      "ò": 176,
      "ó": 177,
      "ô": 178,
      "õ": 179,
      "ö": 180,
      "÷": 181,
      "ø": 182,
      "ù": 183,
      "ú": 184,
      "û": 185,
      "ü": 186,
      "ý": 187,
      "þ": 188,
      "ÿ": 189,
      "Ā": 190,
      "ā": 191,
      "Ă": 192,
      "ă": 193,
      "Ą": 194,
      "ą": 195,
      "Ć": 196,
      "ć": 197,
      "Ĉ": 198,
      "ĉ": 199,
      "Ċ": 200,
      "ċ": 201,
      "Č": 202,
      "č": 203,
      "Ď": 204,
      "ď": 205,
      "Đ": 206,
      "đ": 207,
      "Ē": 208,
      "ē": 209,
      "Ĕ": 210,
      "ĕ": 211,
      "Ė": 212,
      "ė": 213,
      "Ę": 214,
      "ę": 215,
      "Ě": 216,
      "ě": 217,
      "Ĝ": 218,
      "ĝ": 219,
      "Ğ": 220,
      "ğ": 221,
      "Ġ": 222,
      "ġ": 223,
      "Ģ": 224,
      "ģ": 225,
      "Ĥ": 226,
      "ĥ": 227,
      "Ħ": 228,
      "ħ": 229,
      "Ĩ": 230,
      "ĩ": 231,
      "Ī": 232,
      "ī": 233,
      "Ĭ": 234,
      "ĭ": 235,
      "Į": 236,
      "į": 237,
      "İ": 238,
      "ı": 239,
      "Ĳ": 240,
      "ĳ": 241,
      "Ĵ": 242,
      "ĵ": 243,
      "Ķ": 244,
      "ķ": 245,
      "ĸ": 246,
      "Ĺ": 247,
      "ĺ": 248,
      "Ļ": 249,
      "ļ": 250,
      "Ľ": 251,
      "ľ": 252,
      "Ŀ": 253,
      "ŀ": 254,
      "Ł": 255,
      "ł": 256,
      "Ń": 257,
      "Ġt": 258,
      "Ġa": 259,
      "in": 260,
      "er": 261,
      "čĊ": 262,
      "on": 263,
      "at": 264,
      "he": 265,
      "re": 266,
      "Ġs": 267,
      "en": 268,
      "or": 269,
      "Ġthe": 270,
      "Ġc": 271,
      "es": 272,
      "ed": 273,
      "Ġo": 274,
      "al": 275,
      "ion": 276,
      "is": 277,
      "Ġp": 278,
      "it": 279,
      "ing": 280,
      "Ġin": 281,
      "an": 282,
      "Ġm": 283,
      "Ġan": 284,
      "Ġd": 285,
      "ic": 286,
      "ar": 287,
      "Ġb": 288,
      "ro": 289,
      "Ġf": 290,
      "Ġof": 291,
      "le": 292,
      "Ġw": 293,
      "Ġto": 294,
      "Ġand": 295,
      "ent": 296,
      "ct": 297,
      "as": 298,
      "om": 299,
      "ation": 300,
      "us": 301,
      "ut": 302,
      "Ġre": 303,
      "Ġe": 304,
      "el": 305,
      "Ġth": 306,
      "Ġl": 307,
      "Ġn": 308,
      "ch": 309,
      "st": 310,
      "Ġpro": 311,
      "et": 312,
      "Ġis": 313,
      "im": 314,
      "ly": 315,
      ".[": 316,
      "Ġh": 317,
      "ce": 318,
      "un": 319,
      "ra": 320,
      "od": 321,
      "Ġcom": 322,
      "ul": 323,
      "il": 324,
      "ve": 325,
      "ers": 326,
      "Ġbe": 327,
      "Ġas": 328,
      "ĠT": 329,
      "Ġfor": 330,
      "ur": 331,
      "em": 332,
      "ig": 333,
      "Ġus": 334,
      "Ġst": 335,
      "ith": 336,
      "Ġcomp": 337,
      "Ġ(": 338,
      "ab": 339,
      "Ġthat": 340,
      "ag": 341,
      "ol": 342,
      "Ġcon": 343,
      "pl": 344,
      "id": 345,
      "ot": 346,
      "Ġon": 347,
      "Ġg": 348,
      "Ġde": 349,
      "if": 350,
      "Ġal": 351,
      "ĠA": 352,
      "ay": 353,
      "am": 354,
      "Ġdat": 355,
      "Ġex": 356,
      "ow": 357,
      "Ġsu": 358,
      "ces": 359,
      "Ġv": 360,
      "ter": 361,
      "Ġare": 362,
      "ĠI": 363,
      "Ġby": 364,
      "ĠC": 365,
      "Ġor": 366,
      "her": 367,
      "ment": 368,
      "qu": 369,
      "Ġwith": 370,
      "ction": 371,
      "pt": 372,
      "ist": 373,
      "ri": 374,
      "res": 375,
      "for": 376,
      "se": 377,
      "Ġdata": 378,
      "pe": 379,
      "ver": 380,
      "ical": 381,
      "Ġit": 382,
      "ine": 383,
      "Ġmod": 384,
      "ud": 385,
      "ĠThe": 386,
      "ĠS": 387,
      "ir": 388,
      "ate": 389,
      "ity": 390,
      "Ġwh": 391,
      "age": 392,
      "Ġcan": 393,
      "Ġma": 394,
      "cess": 395,
      "Ġle": 396,
      "Ġsy": 397,
      "per": 398,
      "iz": 399,
      "ple": 400,
      "ations": 401,
      "Ġne": 402,
      "oc": 403,
      "form": 404,
      "ang": 405,
      "ial": 406,
      "ad": 407,
      "Ġcomput": 408,
      "ive": 409,
      "Ġmodel": 410,
      "stem": 411,
      "ies": 412,
      "Ġ\"": 413,
      "Ġap": 414,
      "iv": 415,
      "20": 416,
      "ect": 417,
      "um": 418,
      "ore": 419,
      "rom": 420,
      "ork": 421,
      "and": 422,
      "Ġsystem": 423,
      "Ġse": 424,
      "ram": 425,
      "ĠIn": 426,
      "Ġim": 427,
      "ning": 428,
      "Ġint": 429,
      "Ġen": 430,
      "ult": 431,
      "op": 432,
      "Ġfrom": 433,
      "ĠM": 434,
      "ich": 435,
      "][": 436,
      "Ġr": 437,
      "etw": 438,
      "Ġun": 439,
      "Ġ1": 440,
      "Ġinc": 441,
      "og": 442,
      "ated": 443,
      "ence": 444,
      "ac": 445,
      "ard": 446,
      "est": 447,
      "ure": 448,
      "ener": 449,
      "os": 450,
      "ru": 451,
      "th": 452,
      "Ġlear": 453,
      "vel": 454,
      "angu": 455,
      "Ġwhich": 456,
      "fer": 457,
      "so": 458,
      "ans": 459,
      "ĠP": 460,
      "{\\": 461,
      "Ġcl": 462,
      "are": 463,
      "Ġat": 464,
      "gram": 465,
      "all": 466,
      "Ġnot": 467,
      "Ġsuch": 468,
      "Ġcont": 469,
      "Ġlangu": 470,
      "Ġpar": 471,
      "ory": 472,
      "Ġwas": 473,
      "ble": 474,
      "Ġ20": 475,
      "Ġused": 476,
      "ĠG": 477,
      "Ġar": 478,
      "able": 479,
      "ke": 480,
      "eb": 481,
      "Ġgener": 482,
      "Ġinter": 483,
      "ĠL": 484,
      "ific": 485,
      "Ġha": 486,
      "pro": 487,
      "Ġprogram": 488,
      "put": 489,
      "Ġlearning": 490,
      "ther": 491,
      "Ġad": 492,
      "ĠD": 493,
      "ant": 494,
      "Ġall": 495,
      "ain": 496,
      "Ġprocess": 497,
      "Ġac": 498,
      "ions": 499,
      "ort": 500,
      "Ġman": 501,
      "ign": 502,
      "plic": 503,
      "du": 504,
      "ĠB": 505,
      "âĢ": 506,
      "ep": 507,
      "ms": 508,
      "Ġhave": 509,
      "end": 510,
      "Ġfun": 511,
      "'s": 512,
      "ĠF": 513,
      "Ġpre": 514,
      "ual": 515,
      "ex": 516,
      "Ġtr": 517,
      "ost": 518,
      "lud": 519,
      "ĠW": 520,
      "Ġtra": 521,
      "ous": 522,
      "ics": 523,
      "Ġdes": 524,
      "etwork": 525,
      "Ġso": 526,
      "The": 527,
      "ari": 528,
      "Ġsc": 529,
      "ĠAI": 530,
      "Ġinclud": 531,
      "Ġspe": 532,
      "igh": 533,
      "ach": 534,
      "ere": 535,
      "ech": 536,
      "ition": 537,
      "Ġfunction": 538,
      "Ġuse": 539,
      "ome": 540,
      "Ġnetwork": 541,
      "Ġper": 542,
      "Ġtrans": 543,
      "Ġch": 544,
      "ug": 545,
      "Ġlanguage": 546,
      "ĠH": 547,
      "arch": 548,
      "oun": 549,
      "ĠE": 550,
      "ors": 551,
      "ell": 552,
      "yle": 553,
      "ative": 554,
      "ance": 555,
      "ext": 556,
      "ase": 557,
      "Ġhas": 558,
      "av": 559,
      "play": 560,
      "Ġ19": 561,
      "ĠO": 562,
      "ility": 563,
      "ating": 564,
      "ire": 565,
      "dis": 566,
      "),": 567,
      "ft": 568,
      "velop": 569,
      "ary": 570,
      "ks": 571,
      "Ġmat": 572,
      "Ġalg": 573,
      "ens": 574,
      "ased": 575,
      "ill": 576,
      "Ġits": 577,
      "style": 578,
      "ĠTh": 579,
      "ĠJ": 580,
      "Ġty": 581,
      "Ġoper": 582,
      "Ġdevelop": 583,
      "port": 584,
      "ĠR": 585,
      "ass": 586,
      "Ġapplic": 587,
      "playstyle": 588,
      "displaystyle": 589,
      "ess": 590,
      "Ġres": 591,
      "Ġother": 592,
      "ime": 593,
      "ge": 594,
      "Ġmach": 595,
      "ware": 596,
      "Ġsystems": 597,
      "ely": 598,
      "Ġser": 599,
      "Ġmay": 600,
      "cri": 601,
      "ff": 602,
      "ide": 603,
      "Ġcomputer": 604,
      "act": 605,
      "up": 606,
      "}}": 607,
      "ample": 608,
      "Ġmet": 609,
      "ugh": 610,
      "mat": 611,
      "ĠN": 612,
      "Ġstat": 613,
      "ages": 614,
      "ress": 615,
      "ĠčĊ": 616,
      "Ġprov": 617,
      "ame": 618,
      "Ġthis": 619,
      "Ġalso": 620,
      "Ġmodels": 621,
      "orith": 622,
      "Ġmem": 623,
      "ode": 624,
      "ĠU": 625,
      "Ġmore": 626,
      "ject": 627,
      "Ġk": 628,
      "ord": 629,
      "ient": 630,
      "hod": 631,
      "Ġdif": 632,
      "Ġvari": 633,
      "here": 634,
      "int": 635,
      "Ġmult": 636,
      "ust": 637,
      "ural": 638,
      "Ġout": 639,
      "Ġmethod": 640,
      "der": 641,
      "ys": 642,
      "Ġtrain": 643,
      "ec": 644,
      "ue": 645,
      "Ġsp": 646,
      "Ġmachine": 647,
      "ile": 648,
      "ĠThis": 649,
      "Ġweb": 650,
      "Ġalgorith": 651,
      "Ġcompil": 652,
      "Ġdis": 653,
      "ures": 654,
      "ments": 655,
      "Ġmemory": 656,
      ",[": 657,
      "Ġbut": 658,
      "ib": 659,
      "Ġtheir": 660,
      "Ġob": 661,
      "ap": 662,
      "Ġqu": 663,
      "Ġadd": 664,
      "fin": 665,
      "hen": 666,
      "Ġcall": 667,
      "ically": 668,
      "oul": 669,
      "Ġdec": 670,
      "Ġsh": 671,
      "ruct": 672,
      "Ġfe": 673,
      "In": 674,
      "tern": 675,
      "ould": 676,
      "Ġpart": 677,
      "Ġrec": 678,
      "Ġone": 679,
      "ced": 680,
      "Ġev": 681,
      "Ġlay": 682,
      "Ġrequ": 683,
      "Ġcomm": 684,
      "Ġspec": 685,
      "ern": 686,
      "Ġnum": 687,
      "ight": 688,
      "ace": 689,
      "Ġproble": 690,
      "Ġexample": 691,
      "Ġover": 692,
      "ten": 693,
      "Ġab": 694,
      "ational": 695,
      "Ġem": 696,
      "Ġbeen": 697,
      "Ġwere": 698,
      ").": 699,
      "ber": 700,
      "Ġind": 701,
      "Ġinst": 702,
      "ast": 703,
      "ability": 704,
      "andard": 705,
      "echn": 706,
      "formation": 707,
      "ack": 708,
      "vic": 709,
      "ict": 710,
      "ip": 711,
      "Ġset": 712,
      "rit": 713,
      "Ġanal": 714,
      "ular": 715,
      "now": 716,
      "out": 717,
      "Ġmany": 718,
      "Ġdiffer": 719,
      "Ġcons": 720,
      "ention": 721,
      "Ġthan": 722,
      "Ġdatab": 723,
      "Ġperform": 724,
      "ub": 725,
      "Ġtime": 726,
      "Ġsome": 727,
      "Ġmulti": 728,
      "Ġlar": 729,
      "ind": 730,
      "resent": 731,
      "Ġappro": 732,
      "ie": 733,
      "oud": 734,
      "Ġhe": 735,
      "Ġrel": 736,
      "Ġatt": 737,
      "Ġtechn": 738,
      "Ġusing": 739,
      "Ġtyp": 740,
      "ally": 741,
      "Ġme": 742,
      "inear": 743,
      "ization": 744,
      "ong": 745,
      "Ġinto": 746,
      "een": 747,
      "Ġthey": 748,
      "Ġdo": 749,
      "Ġcalled": 750,
      "Ġcode": 751,
      "Ġsim": 752,
      "cript": 753,
      "nt": 754,
      "Ġopt": 755,
      "Ġdist": 756,
      "Ġsub": 757,
      "etween": 758,
      "Ġprogramm": 759,
      "ph": 760,
      "ize": 761,
      "Ġbec": 762,
      "king": 763,
      "Ġstandard": 764,
      "row": 765,
      "Ġfir": 766,
      "ail": 767,
      "Ġbetween": 768,
      "Ġass": 769,
      "ases": 770,
      "ities": 771,
      "art": 772,
      "Ġrese": 773,
      "ied": 774,
      "olog": 775,
      "Ġimple": 776,
      "Ġprovid": 777,
      "10": 778,
      "Ġdesign": 779,
      "Ġresearch": 780,
      "aus": 781,
      "ible": 782,
      "ftware": 783,
      "Ġstatist": 784,
      "Ġfirst": 785,
      "Ġpo": 786,
      "Ġknow": 787,
      "ia": 788,
      "but": 789,
      "eg": 790,
      "Ġwork": 791,
      "Ġneed": 792,
      "cur": 793,
      "low": 794,
      "vect": 795,
      "ose": 796,
      "Ġaut": 797,
      "hes": 798,
      "ite": 799,
      "Ġinformation": 800,
      "Ġimplement": 801,
      "erm": 802,
      "Ġthese": 803,
      "ctions": 804,
      "hemat": 805,
      "Ġval": 806,
      "ates": 807,
      "Ġaccess": 808,
      "ĠFor": 809,
      "cy": 810,
      "Ġpl": 811,
      "Ġpos": 812,
      "Ġsup": 813,
      "ĠIt": 814,
      "Ġnew": 815,
      "Ġprot": 816,
      "ike": 817,
      "Ġvect": 818,
      "ree": 819,
      "Ġinput": 820,
      "ential": 821,
      "Ġprodu": 822,
      "ribut": 823,
      "ized": 824,
      "Ġlarge": 825,
      "PT": 826,
      "Ġrep": 827,
      "Ġcloud": 828,
      "ound": 829,
      "les": 830,
      "Ġcre": 831,
      "Ġclass": 832,
      "Ġ202": 833,
      "wo": 834,
      "Ġmethods": 835,
      "ually": 836,
      "Ġnetworks": 837,
      "Ġeach": 838,
      "Ġonly": 839,
      "Ġapplications": 840,
      "ience": 841,
      "11": 842,
      "ubl": 843,
      "pre": 844,
      "Ġmost": 845,
      "Ġlinear": 846,
      "Ġunder": 847,
      "Ġpred": 848,
      "Ġoptim": 849,
      "cept": 850,
      "Ġform": 851,
      "ents": 852,
      "Ġneural": 853,
      "Ġmathemat": 854,
      "Ġdatabase": 855,
      "con": 856,
      "ser": 857,
      "itect": 858,
      "Ġdefin": 859,
      "ĠSt": 860,
      "Ġrepresent": 861,
      "LM": 862,
      "yth": 863,
      "ĠV": 864,
      "Ġtas": 865,
      "Ġsoftware": 866,
      "cul": 867,
      "Ġeff": 868,
      "Ġtwo": 869,
      "Ġdisc": 870,
      "Ġtok": 871,
      "ne": 872,
      "ols": 873,
      "ava": 874,
      "Ġtraining": 875,
      "ved": 876,
      "Ġhum": 877,
      "Ġcomputing": 878,
      "Ġallow": 879,
      "Ġoperating": 880,
      "hed": 881,
      "rough": 882,
      "12": 883,
      "ever": 884,
      "alcul": 885,
      "ision": 886,
      "chitect": 887,
      "Ġalgorithms": 888,
      "Ġdeep": 889,
      "Ġinclude": 890,
      "Ġag": 891,
      "urce": 892,
      "Ġdifferent": 893,
      "Ġsupport": 894,
      "Ġany": 895,
      "Ġprob": 896,
      "Ġprogramming": 897,
      "_{": 898,
      "Ġthen": 899,
      "Ġoften": 900,
      "Ġcomple": 901,
      "Ġarchitect": 902,
      "ython": 903,
      "Ġinv": 904,
      "Ġwhere": 905,
      "Ġup": 906,
      "Ġresult": 907,
      "Ġoutput": 908,
      "Ġwhen": 909,
      "Ġapplication": 910,
      "Ġph": 911,
      "Ġexp": 912,
      "Script": 913,
      "ines": 914,
      "arly": 915,
      "Ġobject": 916,
      "Ġlayer": 917,
      "Ġtext": 918,
      "Ġsol": 919,
      "Ġfeat": 920,
      "19": 921,
      "Ġcor": 922,
      "Ġstruct": 923,
      "Ġgo": 924,
      "16": 925,
      "bed": 926,
      "iel": 927,
      "Ġif": 928,
      "alle": 929,
      "Ġpubl": 930,
      "Ġlanguages": 931,
      "allel": 932,
      "17": 933,
      "Ġrun": 934,
      "Ġpredict": 935,
      "ower": 936,
      "Ġtransform": 937,
      "ellig": 938,
      "ough": 939,
      "Ġcalcul": 940,
      "ield": 941,
      "14": 942,
      "com": 943,
      "ism": 944,
      "pect": 945,
      "Ġsign": 946,
      "ecut": 947,
      "Ġincre": 948,
      "Ġnumber": 949,
      "Ġdet": 950,
      "Ġbased": 951,
      "Ġstud": 952,
      "ark": 953,
      "oth": 954,
      "ĠJava": 955,
      "te": 956,
      "ĠUn": 957,
      "ons": 958,
      "Ġsame": 959,
      "rol": 960,
      "lect": 961,
      "Ġservic": 962,
      "Ġcol": 963,
      "Ġwrit": 964,
      "Ġexecut": 965,
      "Ġincluding": 966,
      "ount": 967,
      "Ġdevelopment": 968,
      "Ġspace": 969,
      "Ġanalys": 970,
      "18": 971,
      "Ġart": 972,
      "pen": 973,
      "Ġdistribut": 974,
      "Ġco": 975,
      "uring": 976,
      "Ġhuman": 977,
      "++": 978,
      "Ġext": 979,
      "Ġvector": 980,
      "15": 981,
      "iqu": 982,
      "Ġj": 983,
      "Ġthrough": 984,
      "und": 985,
      "owever": 986,
      "Ġrequire": 987,
      "Ġmultiple": 988,
      "su": 989,
      "ery": 990,
      "Ġreg": 991,
      "Ġparallel": 992,
      "gan": 993,
      "its": 994,
      "Ġbi": 995,
      "ogn": 996,
      "ĠLLM": 997,
      "ĠAl": 998,
      "Ġprocessing": 999,
      "--": 1000,
      "BM": 1001,
      "text": 1002,
      "ving": 1003,
      "Ġenc": 1004,
      "âĢĵ": 1005,
      "Ġanalysis": 1006,
      "ak": 1007,
      "ively": 1008,
      "Ġeng": 1009,
      "Ġy": 1010,
      "ident": 1011,
      "Ġperformance": 1012,
      "ause": 1013,
      "ob": 1014,
      "ince": 1015,
      "Ġprobability": 1016,
      "ik": 1017,
      "ok": 1018,
      "als": 1019,
      "ĠIntern": 1020,
      "Ġacc": 1021,
      "Ġcommon": 1022,
      "^{": 1023,
      "ful": 1024,
      "Ġhard": 1025,
      "ollow": 1026,
      "Ġspecific": 1027,
      "elligence": 1028,
      "ry": 1029,
      "Ġ\\": 1030,
      "ise": 1031,
      "ement": 1032,
      "Ġinteg": 1033,
      "itional": 1034,
      "ibr": 1035,
      "Ġproblems": 1036,
      "Ġinstru": 1037,
      "ix": 1038,
      "Ġro": 1039,
      "Ġav": 1040,
      "Ġwe": 1041,
      "Ġwill": 1042,
      "ificial": 1043,
      "Ġproblem": 1044,
      "Ġpoint": 1045,
      "Ġposs": 1046,
      "tain": 1047,
      "Ġfield": 1048,
      "Ġexper": 1049,
      "Ġgeneral": 1050,
      "ward": 1051,
      "Ġthere": 1052,
      "Ġhigh": 1053,
      "Ġgiv": 1054,
      "Ġwhile": 1055,
      "Ġknown": 1056,
      "00": 1057,
      "13": 1058,
      "ld": 1059,
      "yn": 1060,
      "ency": 1061,
      "Ġtheory": 1062,
      "Ġcap": 1063,
      "âĢĶ": 1064,
      "Ġtasks": 1065,
      "vers": 1066,
      "Ġam": 1067,
      "Ġfin": 1068,
      "oder": 1069,
      "Ġuser": 1070,
      "ables": 1071,
      "Ġalgorithm": 1072,
      ".,": 1073,
      "rodu": 1074,
      "Ġfollow": 1075,
      "plo": 1076,
      "Ġpartic": 1077,
      "ology": 1078,
      "Ġbig": 1079,
      "ampl": 1080,
      "ĠPython": 1081,
      "Ġdeveloped": 1082,
      "Ġpr": 1083,
      "ites": 1084,
      "Ġrele": 1085,
      "ĠGPT": 1086,
      "Ġtype": 1087,
      "Ġ3": 1088,
      "Ġfound": 1089,
      "Ġimpro": 1090,
      "led": 1091,
      "not": 1092,
      "Ġsm": 1093,
      "Ġlike": 1094,
      "Ġcompiler": 1095,
      "ilities": 1096,
      "rix": 1097,
      "Ġvalue": 1098,
      "Ġuses": 1099,
      "AI": 1100,
      "ding": 1101,
      "Ġ{": 1102,
      "Ġke": 1103,
      "ish": 1104,
      "Ġlibr": 1105,
      "Ġusers": 1106,
      "olic": 1107,
      "ider": 1108,
      "cial": 1109,
      "ator": 1110,
      "Ġboth": 1111,
      "Ġway": 1112,
      "Ġconst": 1113,
      "riv": 1114,
      "Ġprograms": 1115,
      "vir": 1116,
      "Ġident": 1117,
      "Ġcent": 1118,
      "âĢĬ": 1119,
      "ss": 1120,
      "val": 1121,
      "Ġact": 1122,
      "ĠCom": 1123,
      "Ġintrodu": 1124,
      "Ġfeatures": 1125,
      "Ġhardware": 1126,
      "Ġparticular": 1127,
      "pos": 1128,
      "Ġscience": 1129,
      "\".[": 1130,
      "de": 1131,
      "tt": 1132,
      "ĠK": 1133,
      "Ġent": 1134,
      "Ġest": 1135,
      "Ġequ": 1136,
      "Ġhy": 1137,
      "Ġhad": 1138,
      "ract": 1139,
      "ĠPro": 1140,
      "Ġprotoc": 1141,
      "viron": 1142,
      "Ġ2": 1143,
      "Ġwell": 1144,
      "Ġwould": 1145,
      "Ġconc": 1146,
      "Ġdescri": 1147,
      "Ġfunctions": 1148,
      "ew": 1149,
      "ear": 1150,
      "ences": 1151,
      "Ġpat": 1152,
      "rain": 1153,
      "Ġmanag": 1154,
      "Ġabout": 1155,
      "Ġtechniqu": 1156,
      "the": 1157,
      "Ġthem": 1158,
      "ised": 1159,
      "Ġpop": 1160,
      "Ġno": 1161,
      "ify": 1162,
      "Ġchar": 1163,
      "ĠInternet": 1164,
      "based": 1165,
      "Ġpower": 1166,
      "elf": 1167,
      "Ġstate": 1168,
      "Ġenviron": 1169,
      "Ġinterpre": 1170,
      "ier": 1171,
      "Ġcould": 1172,
      "omet": 1173,
      "Ġloc": 1174,
      "ĠCh": 1175,
      "ĠThese": 1176,
      "Ġchang": 1177,
      "ather": 1178,
      "Ġintelligence": 1179,
      "Ġalloc": 1180,
      "Ġ199": 1181,
      "Ġaddress": 1182,
      "Ġarchitecture": 1183,
      "Ġintegr": 1184,
      "xim": 1185,
      "Ġra": 1186,
      "ets": 1187,
      "Ġcontrol": 1188,
      "Ġgenerative": 1189,
      "Ġmeas": 1190,
      ").[": 1191,
      "Ġterm": 1192,
      "inu": 1193,
      "one": 1194,
      "ished": 1195,
      "icro": 1196,
      "Ġreso": 1197,
      "Ġlim": 1198,
      "Ġexpress": 1199,
      "ynam": 1200,
      "ma": 1201,
      "Ġtest": 1202,
      "orld": 1203,
      "ited": 1204,
      "Ġrefer": 1205,
      "urn": 1206,
      "Ġdep": 1207,
      "irect": 1208,
      "ĠJavaScript": 1209,
      "ric": 1210,
      "rent": 1211,
      "Ġsize": 1212,
      "orm": 1213,
      "Ġnon": 1214,
      "ified": 1215,
      "Ġsever": 1216,
      "Ġsearch": 1217,
      "ared": 1218,
      "Ġlayers": 1219,
      "Ġeffic": 1220,
      "Ġcomplex": 1221,
      "aces": 1222,
      "fic": 1223,
      "ater": 1224,
      "Ġbeh": 1225,
      "Ġvers": 1226,
      "Ġengine": 1227,
      "Ġseveral": 1228,
      "NN": 1229,
      "ious": 1230,
      "ata": 1231,
      "ional": 1232,
      "Ġword": 1233,
      "Ġstor": 1234,
      "oci": 1235,
      "Ġcontent": 1236,
      "Ġtrained": 1237,
      "Ġtypically": 1238,
      "Ġstatistical": 1239,
      "Ġstudy": 1240,
      "Ġpossible": 1241,
      "read": 1242,
      "Ġbrow": 1243,
      "Ġreal": 1244,
      "Ġnat": 1245,
      "ĠGo": 1246,
      "Ġattention": 1247,
      "Ġtoken": 1248,
      "Ġavail": 1249,
      "Ġcharact": 1250,
      "fore": 1251,
      "Ġhow": 1252,
      "Ġcomputers": 1253,
      "ification": 1254,
      "Ġrecogn": 1255,
      "Ġtypes": 1256,
      "CP": 1257,
      "red": 1258,
      "Ġbas": 1259,
      "Ġbeing": 1260,
      "andom": 1261,
      "Ġsequ": 1262,
      "Ġscal": 1263,
      "avi": 1264,
      "imes": 1265,
      "Ġconcept": 1266,
      "amet": 1267,
      "ĠHowever": 1268,
      "Ġcost": 1269,
      "Ġinf": 1270,
      "Ġbu": 1271,
      "ently": 1272,
      "Ġlog": 1273,
      "Ġstr": 1274,
      "ĠWeb": 1275,
      "Ġmatrix": 1276,
      "Ġanaly": 1277,
      "Ġconsider": 1278,
      "Ġsimil": 1279,
      "Ġautom": 1280,
      "inc": 1281,
      "Ġdynam": 1282,
      "igin": 1283,
      "Ġusually": 1284,
      "Ġexist": 1285,
      "Ġlearn": 1286,
      "amples": 1287,
      "get": 1288,
      "any": 1289,
      "very": 1290,
      "Ġmathematical": 1291,
      "ploy": 1292,
      "23": 1293,
      "bers": 1294,
      "fter": 1295,
      "ps": 1296,
      "Ġret": 1297,
      "Ġearly": 1298,
      "urces": 1299,
      "Ġend": 1300,
      "Ġcontain": 1301,
      "Ġapproach": 1302,
      "Ġstructure": 1303,
      "Ġgiven": 1304,
      "aw": 1305,
      "Ġsing": 1306,
      "Ġdom": 1307,
      "Ġdirect": 1308,
      "level": 1309,
      "Ġlong": 1310,
      "Ġimage": 1311,
      "Ġrandom": 1312,
      "epend": 1313,
      "Ġkey": 1314,
      "âĪ": 1315,
      "ality": 1316,
      "Ġwithin": 1317,
      "echan": 1318,
      "Ġcalculus": 1319,
      "Ġavailable": 1320,
      "PU": 1321,
      "ron": 1322,
      "ting": 1323,
      "time": 1324,
      "Âł": 1325,
      "Ġcur": 1326,
      "Ġfact": 1327,
      "Ġprom": 1328,
      "ulation": 1329,
      "Ġgra": 1330,
      "Ġlevel": 1331,
      "ogle": 1332,
      "Ġstatistics": 1333,
      "Ġneeded": 1334,
      "Ġsmall": 1335,
      "ues": 1336,
      "ves": 1337,
      "ering": 1338,
      "ren": 1339,
      "edia": 1340,
      "Ġlo": 1341,
      "Ġorigin": 1342,
      "Ġmake": 1343,
      "ivers": 1344,
      "Ġtransformer": 1345,
      "Ġsignific": 1346,
      "Ġartificial": 1347,
      "22": 1348,
      "ice": 1349,
      "Ġfind": 1350,
      "ety": 1351,
      "imens": 1352,
      "Ġhand": 1353,
      "ĠAn": 1354,
      "irt": 1355,
      "Ġappl": 1356,
      "ĠDe": 1357,
      "Ġbecause": 1358,
      "Ġpublic": 1359,
      "Ġinterpret": 1360,
      "Ġbehavi": 1361,
      "\"[": 1362,
      "ross": 1363,
      "Ġreas": 1364,
      "istic": 1365,
      "force": 1366,
      "Ġrather": 1367,
      "Ġvarious": 1368,
      "Ġembed": 1369,
      "curity": 1370,
      "Ġsingle": 1371,
      "err": 1372,
      "ertain": 1373,
      "Ġsynt": 1374,
      "Ġ198": 1375,
      "Ġcorre": 1376,
      "Ġstorage": 1377,
      "ian": 1378,
      "lo": 1379,
      "rast": 1380,
      "Ġredu": 1381,
      "Ġwhat": 1382,
      "pon": 1383,
      "uch": 1384,
      "Ġta": 1385,
      "Ġpolic": 1386,
      "Ġback": 1387,
      "soft": 1388,
      "ĠOpen": 1389,
      "Ġdecision": 1390,
      "Ġdoes": 1391,
      "Ġlibrary": 1392,
      "Ġtechniques": 1393,
      "por": 1394,
      "inforce": 1395,
      "erg": 1396,
      "itive": 1397,
      "Ġele": 1398,
      "Ġcomb": 1399,
      "Ġsecurity": 1400,
      "Ġcontext": 1401,
      "Ġparamet": 1402,
      "Ġintern": 1403,
      "Ġresults": 1404,
      "Ġservices": 1405,
      "Ġdepend": 1406,
      "ĠGoogle": 1407,
      "Ġpriv": 1408,
      "Ġmechan": 1409,
      "abilities": 1410,
      "Ġwithout": 1411,
      "Ġsource": 1412,
      "Ġprovide": 1413,
      "ording": 1414,
      "Ġestim": 1415,
      "ked": 1416,
      "Ġbl": 1417,
      "chie": 1418,
      "stand": 1419,
      "Ġsuper": 1420,
      "Ġorgan": 1421,
      "Ġtransl": 1422,
      "Ġtokens": 1423,
      "Ġenvironment": 1424,
      "Ġmeasure": 1425,
      "..": 1426,
      "our": 1427,
      "Ġerr": 1428,
      "Ġsince": 1429,
      "Ġtools": 1430,
      "other": 1431,
      "otential": 1432,
      "Ġdef": 1433,
      "Ġmain": 1434,
      "Ġarg": 1435,
      "Ġvariables": 1436,
      "Ġeffect": 1437,
      "irtual": 1438,
      "par": 1439,
      "head": 1440,
      "itial": 1441,
      "Ġanother": 1442,
      "Ġder": 1443,
      "though": 1444,
      "Ġprev": 1445,
      "Ġwebs": 1446,
      "Ġeven": 1447,
      "iew": 1448,
      "Ġinvol": 1449,
      "Ġcharacter": 1450,
      "Ġsignificant": 1451,
      "inforcement": 1452,
      "ystem": 1453,
      "Ġprocesses": 1454,
      "Ġwritten": 1455,
      "Ġsimilar": 1456,
      "Ġreason": 1457,
      "60": 1458,
      "eo": 1459,
      "Ġmust": 1460,
      "Ġthose": 1461,
      "str": 1462,
      "Ġobser": 1463,
      "Ġnumbers": 1464,
      "Ġconcern": 1465,
      "Ġbuil": 1466,
      "TM": 1467,
      "ccess": 1468,
      "Ġsa": 1469,
      "Ġpotential": 1470,
      "roup": 1471,
      "Ġstart": 1472,
      "Ġwho": 1473,
      "aches": 1474,
      "ebra": 1475,
      "Ġoperations": 1476,
      "Ġserver": 1477,
      "Ġcompilers": 1478,
      "Ġspecial": 1479,
      "Ġindepend": 1480,
      "Ġresearchers": 1481,
      "BMS": 1482,
      "Ġyear": 1483,
      "Ġimprove": 1484,
      "Ġintroduced": 1485,
      "Ġresources": 1486,
      "Ġapplied": 1487,
      "\",": 1488,
      "50": 1489,
      "ipl": 1490,
      "vised": 1491,
      "ators": 1492,
      "Ġpage": 1493,
      "ings": 1494,
      "Ġmin": 1495,
      "ateg": 1496,
      "ock": 1497,
      "illion": 1498,
      "Ġdefined": 1499,
      "Ġnatural": 1500,
      "Ġderiv": 1501,
      "Ġcontinu": 1502,
      "Ġmanagement": 1503,
      "24": 1504,
      "lu": 1505,
      "ling": 1506,
      "ner": 1507,
      "to": 1508,
      "ts": 1509,
      "eng": 1510,
      "ull": 1511,
      "Ġvirtual": 1512,
      "pts": 1513,
      "Ġ200": 1514,
      "Ġadv": 1515,
      "Ġprovides": 1516,
      "Ġphys": 1517,
      "ax": 1518,
      "cal": 1519,
      "Ġspeed": 1520,
      "Ġbecame": 1521,
      "Ġfollowing": 1522,
      ")}": 1523,
      "ov": 1524,
      "Ġafter": 1525,
      "Ġpers": 1526,
      "Ġrem": 1527,
      "ots": 1528,
      "ivid": 1529,
      "Ġarra": 1530,
      "Ġ197": 1531,
      "Ġquest": 1532,
      "Ġproduct": 1533,
      "Ġallows": 1534,
      "Ġpopular": 1535,
      "wik": 1536,
      "Ġdem": 1537,
      "Ġbo": 1538,
      "Ġwid": 1539,
      "ĠThey": 1540,
      "Ġmap": 1541,
      "Ġgenerally": 1542,
      "ĠEn": 1543,
      "---": 1544,
      "25": 1545,
      "IT": 1546,
      "mar": 1547,
      "Ġtar": 1548,
      "lection": 1549,
      "Ġthree": 1550,
      "Ġproper": 1551,
      "Ġsuccess": 1552,
      "Ġcomputational": 1553,
      "Ġgenerate": 1554,
      "Ġalgebra": 1555,
      "Ġshow": 1556,
      "icrosoft": 1557,
      "ection": 1558,
      "Ġide": 1559,
      "Ġmark": 1560,
      "round": 1561,
      "Ġdevic": 1562,
      "Ġvia": 1563,
      "Ġlead": 1564,
      "Ġimport": 1565,
      "Ġcommun": 1566,
      "Ġdesigned": 1567,
      "Ġimplementation": 1568,
      "Ġunderstand": 1569,
      "Ġsolut": 1570,
      "Ġinstructions": 1571,
      "Ġrecognition": 1572,
      "GPT": 1573,
      "IP": 1574,
      "ead": 1575,
      "like": 1576,
      "Ġachie": 1577,
      "Ġsur": 1578,
      "Ġpa": 1579,
      "Ġpract": 1580,
      "Ġbel": 1581,
      "asing": 1582,
      "ules": 1583,
      "ither": 1584,
      "Ġconv": 1585,
      "ists": 1586,
      "istics": 1587,
      "Ġimages": 1588,
      "ended": 1589,
      "math": 1590,
      "Ġrequest": 1591,
      "Ġapproxim": 1592,
      "Ġtechnology": 1593,
      "Ġmathematics": 1594,
      "Ġservice": 1595,
      "ledge": 1596,
      "Ġbrowser": 1597,
      "nect": 1598,
      "Ġsample": 1599,
      "Ġcase": 1600,
      "iss": 1601,
      "Ġduring": 1602,
      "Ġfil": 1603,
      "ental": 1604,
      "Ġref": 1605,
      "ĠAd": 1606,
      "ames": 1607,
      "ocus": 1608,
      "ĠDBMS": 1609,
      "ĠOpenAI": 1610,
      "28": 1611,
      "cl": 1612,
      "cle": 1613,
      "atform": 1614,
      "Ġdel": 1615,
      "Ġhig": 1616,
      "Ġvariable": 1617,
      "ructure": 1618,
      "ernel": 1619,
      "Ġdatabases": 1620,
      "Ġprotocols": 1621,
      "pot": 1622,
      "pose": 1623,
      "ĠX": 1624,
      "Ġoc": 1625,
      "itions": 1626,
      "Ġinitial": 1627,
      "oding": 1628,
      "urther": 1629,
      "pted": 1630,
      "Ġevent": 1631,
      "Ġhel": 1632,
      "Ġassoci": 1633,
      "Ġimplemented": 1634,
      "Ġobjects": 1635,
      "Ġpublished": 1636,
      "ĠLLMs": 1637,
      "Ġpattern": 1638,
      "Ġtheore": 1639,
      "Ġname": 1640,
      "lying": 1641,
      "old": 1642,
      "process": 1643,
      "plicit": 1644,
      "Ġdiffic": 1645,
      "cond": 1646,
      "Ġdistribution": 1647,
      "Ġsequence": 1648,
      "imensional": 1649,
      "Ġdifficult": 1650,
      "ires": 1651,
      "line": 1652,
      "ined": 1653,
      "Ġfre": 1654,
      "Ġhis": 1655,
      "emb": 1656,
      "Ġstore": 1657,
      "Ġmodern": 1658,
      "Ġmade": 1659,
      "ĠEx": 1660,
      "Ġcompilation": 1661,
      "Ġapproaches": 1662,
      "Ġdeterm": 1663,
      "Ġamount": 1664,
      "posed": 1665,
      "Ġefficient": 1666,
      "Ġdynamic": 1667,
      ".\"[": 1668,
      "Ġ4": 1669,
      "edi": 1670,
      "ann": 1671,
      "Ġfocus": 1672,
      "Ġreport": 1673,
      "Ġreinforcement": 1674,
      "ĠAs": 1675,
      "ocu": 1676,
      "ĠMicrosoft": 1677,
      "ression": 1678,
      "Ġknowledge": 1679,
      "Ġoptimization": 1680,
      "Ġstructures": 1681,
      "Ġinstruction": 1682,
      "Ġversion": 1683,
      "Ġcorrect": 1684,
      "eople": 1685,
      "\".": 1686,
      "ty": 1687,
      "Ġ}": 1688,
      "Ġcertain": 1689,
      "Ġless": 1690,
      "Ġstep": 1691,
      "Ġconf": 1692,
      "Ġgroup": 1693,
      "ĠCl": 1694,
      "sequ": 1695,
      "ĠSo": 1696,
      "Ġsym": 1697,
      "ives": 1698,
      "Ġris": 1699,
      "Ġscient": 1700,
      "ffic": 1701,
      "Ġexperim": 1702,
      "ttention": 1703,
      "Ġdescrib": 1704,
      "Ġlimit": 1705,
      "Ġengineering": 1706,
      "SI": 1707,
      "]:": 1708,
      "gest": 1709,
      "Ġz": 1710,
      "ream": 1711,
      "Ġpeople": 1712,
      "Ġinfin": 1713,
      "aries": 1714,
      "ramew": 1715,
      "puter": 1716,
      "ĠData": 1717,
      "Ġkernel": 1718,
      "Ġrelated": 1719,
      "Ġattem": 1720,
      "Ġagent": 1721,
      "Ġbehavior": 1722,
      "Ġyears": 1723,
      "Ġtarget": 1724,
      "ramework": 1725,
      "less": 1726,
      "ove": 1727,
      "rans": 1728,
      "ule": 1729,
      "Ġ=": 1730,
      "ero": 1731,
      "reat": 1732,
      "Ġben": 1733,
      "Ġlin": 1734,
      "ĠThere": 1735,
      "Ġview": 1736,
      "Ġincludes": 1737,
      "Ġspeech": 1738,
      "Ġquery": 1739,
      "ights": 1740,
      "Ġconsum": 1741,
      "Ġvectors": 1742,
      "Ġcreate": 1743,
      "Ġarchitectures": 1744,
      "Ġhypot": 1745,
      "ometimes": 1746,
      "Ġbasis": 1747,
      "Ġconsidered": 1748,
      "Ġautomat": 1749,
      "Ġdomain": 1750,
      "Ġpolicy": 1751,
      "Ġargu": 1752,
      "cing": 1753,
      "ness": 1754,
      "wn": 1755,
      "âģ": 1756,
      "Ġter": 1757,
      "Ġpass": 1758,
      "Ġoffer": 1759,
      "ĠTCP": 1760,
      "Ġexpl": 1761,
      "Ġcomputation": 1762,
      "Ġprocessor": 1763,
      "Ġspaces": 1764,
      "Ġquant": 1765,
      "Ġshould": 1766,
      "Ġrequires": 1767,
      "Ġmean": 1768,
      "Ġprovided": 1769,
      "Ġvalues": 1770,
      "Ġtask": 1771,
      "Ġreleased": 1772,
      "Ġcurrent": 1773,
      "Ġhigher": 1774,
      "hip": 1775,
      "ran": 1776,
      "wh": 1777,
      "Ġi": 1778,
      "ense": 1779,
      "Ġport": 1780,
      "Ġdocu": 1781,
      "Ġeither": 1782,
      "Ġthough": 1783,
      "Ġlow": 1784,
      "Ġproject": 1785,
      "Ġbefore": 1786,
      "ĠIBM": 1787,
      "Ġorder": 1788,
      "Ġsecond": 1789,
      "Ġseries": 1790,
      "Ġsets": 1791,
      "Ġclassification": 1792,
      "Ġ2023": 1793,
      "Ġdescribed": 1794,
      "ĠDeep": 1795,
      "Ġindependent": 1796,
      "34": 1797,
      "TP": 1798,
      "jor": 1799,
      "medi": 1800,
      "ted": 1801,
      "way": 1802,
      "Ġx": 1803,
      "Ġche": 1804,
      "Ġcount": 1805,
      "itation": 1806,
      "Ġins": 1807,
      "ick": 1808,
      "Ġled": 1809,
      "olut": 1810,
      "Ġdatas": 1811,
      "ption": 1812,
      "Ġnecess": 1813,
      "Ġfew": 1814,
      "Ġcreated": 1815,
      "Ġencoder": 1816,
      "Ġoriginal": 1817,
      "Ġwebsites": 1818,
      "Ġreasoning": 1819,
      "Ġimportant": 1820,
      "Ġhypothes": 1821,
      "//": 1822,
      "_{\\": 1823,
      "ded": 1824,
      "of": 1825,
      "til": 1826,
      "Ġ{\\": 1827,
      "onal": 1828,
      "rel": 1829,
      "Ġsent": 1830,
      "Ġopen": 1831,
      "Ġbus": 1832,
      "Ġlab": 1833,
      "Ġvide": 1834,
      "ĠCon": 1835,
      "Ġneur": 1836,
      "ange": 1837,
      "Ġappe": 1838,
      "ference": 1839,
      "Ġinterf": 1840,
      "Ġaddition": 1841,
      "Ġeval": 1842,
      "Ġsubs": 1843,
      "akes": 1844,
      "cially": 1845,
      "Ġphysical": 1846,
      "99": 1847,
      "ER": 1848,
      "PI": 1849,
      "ditional": 1850,
      "io": 1851,
      "Ġaction": 1852,
      "iness": 1853,
      "ately": 1854,
      "Ġmuch": 1855,
      "Ġevery": 1856,
      "Ġlater": 1857,
      "urpose": 1858,
      "idd": 1859,
      "Ġgrow": 1860,
      "Ġexamples": 1861,
      "Ġarea": 1862,
      "Ġmajor": 1863,
      "izations": 1864,
      "Ġprocessors": 1865,
      "Ġadditional": 1866,
      "Ġproduce": 1867,
      "Ġdistributed": 1868,
      "Ġprinc": 1869,
      "ormal": 1870,
      "Ġsyntax": 1871,
      "Ġmechanism": 1872,
      "Ġoccur": 1873,
      "Ġhelp": 1874,
      "Ġfrequ": 1875,
      "Ġevalu": 1876,
      "26": 1877,
      "27": 1878,
      "35": 1879,
      "Attention": 1880,
      "action": 1881,
      "lar": 1882,
      "word": 1883,
      "xt": 1884,
      "ories": 1885,
      "Ġcases": 1886,
      "ital": 1887,
      "anies": 1888,
      "Ġmight": 1889,
      "Ġframework": 1890,
      "Ġelect": 1891,
      "Ġlaw": 1892,
      "Ġnow": 1893,
      "etter": 1894,
      "Ġstill": 1895,
      "Ġconver": 1896,
      "ĠSome": 1897,
      "Ġcannot": 1898,
      "Ġmanip": 1899,
      "}}}": 1900,
      "ibility": 1901,
      "Ġrelations": 1902,
      "Ġincreasing": 1903,
      "Ġprotocol": 1904,
      "Ġreturn": 1905,
      "Ġparameters": 1906,
      "Ġterms": 1907,
      "30": 1908,
      "dimensional": 1909,
      "met": 1910,
      "inter": 1911,
      "ingu": 1912,
      "uture": 1913,
      "Ġeas": 1914,
      "imin": 1915,
      "ury": 1916,
      "ĠAr": 1917,
      "thers": 1918,
      "Ġgeneration": 1919,
      "Ġincluded": 1920,
      "ired": 1921,
      "ĠNew": 1922,
      "Ġability": 1923,
      "Ġauth": 1924,
      "Ġplatform": 1925,
      "Ġrequired": 1926,
      "Ġchange": 1927,
      "Ġcontinuous": 1928,
      "29": 1929,
      "As": 1930,
      "train": 1931,
      "ura": 1932,
      "Ġtru": 1933,
      "hether": 1934,
      "Ġown": 1935,
      "itut": 1936,
      "Ġfree": 1937,
      "Ġworld": 1938,
      "Ġread": 1939,
      "Ġproposed": 1940,
      "Ġconnect": 1941,
      "Ġdeploy": 1942,
      "ocial": 1943,
      "Ġseg": 1944,
      "ĠLe": 1945,
      "Ġscri": 1946,
      "Ġitself": 1947,
      "Ġrespect": 1948,
      "Ġmachines": 1949,
      "ustom": 1950,
      "Ġindivid": 1951,
      "Ġmeans": 1952,
      "Ġdiscipl": 1953,
      "Ġdirectly": 1954,
      "Ġembedding": 1955,
      "rastructure": 1956,
      "Ġtake": 1957,
      "33": 1958,
      "LP": 1959,
      "uro": 1960,
      "Ġes": 1961,
      "att": 1962,
      "Ġdi": 1963,
      "Ġfac": 1964,
      "Ġissu": 1965,
      "imal": 1966,
      "Ġcompanies": 1967,
      "Ġgu": 1968,
      "ĠSystem": 1969,
      "Ġnext": 1970,
      "Ġassign": 1971,
      "Ġsolve": 1972,
      "Ġexecution": 1973,
      "Ġextens": 1974,
      "iversity": 1975,
      "ĠEng": 1976,
      "MA": 1977,
      "iency": 1978,
      "kes": 1979,
      "Ġ[": 1980,
      "Ġcrit": 1981,
      "Ġcustom": 1982,
      "Ġpages": 1983,
      "ances": 1984,
      "Ġdue": 1985,
      "Ġbro": 1986,
      "Ġfa": 1987,
      "Ġfuture": 1988,
      "Ġrece": 1989,
      "Ġline": 1990,
      "Ġcompon": 1991,
      "oty": 1992,
      "Ġexpect": 1993,
      "Ġsum": 1994,
      "vern": 1995,
      "ulti": 1996,
      "ffect": 1997,
      "Ġrecord": 1998,
      "Ġimplementations": 1999,
      "Ġcollection": 2000,
      "Ġjust": 2001,
      "Ġfinite": 2002,
      "Ġgraph": 2003,
      "Ġmarket": 2004,
      "Ġcommunic": 2005,
      ")[": 2006,
      "40": 2007,
      ":[": 2008,
      "bo": 2009,
      "lish": 2010,
      "ral": 2011,
      "sw": 2012,
      "tical": 2013,
      "ties": 2014,
      "Ġactions": 2015,
      "Ġsem": 2016,
      "Ġsqu": 2017,
      "Ġsometimes": 2018,
      "Ġsocial": 2019,
      "Ġothers": 2020,
      "Ġpresent": 2021,
      "Ġbetter": 2022,
      "Ġfile": 2023,
      "Ġwhether": 2024,
      "ably": 2025,
      "Ġconne": 2026,
      "ĠCPU": 2027,
      "pting": 2028,
      "Ġmaint": 2029,
      "Ġmaking": 2030,
      "Ġmakes": 2031,
      "izing": 2032,
      "Ġ2020": 2033,
      "Ġabst": 2034,
      "Ġfeature": 2035,
      "Ġgovern": 2036,
      "Ġerror": 2037,
      "Ġsaf": 2038,
      "Ġquestion": 2039,
      "apt": 2040,
      "bit": 2041,
      "ck": 2042,
      "citation": 2043,
      "ger": 2044,
      "oid": 2045,
      "side": 2046,
      "tic": 2047,
      "toc": 2048,
      "org": 2049,
      "Ġansw": 2050,
      "Ġrev": 2051,
      "Ġet": 2052,
      "ĠTrans": 2053,
      "ayer": 2054,
      "pecially": 2055,
      "ĠInst": 2056,
      "oss": 2057,
      "Ġinterru": 2058,
      "Ġdescript": 2059,
      "Ġchall": 2060,
      "Ġconsist": 2061,
      "indow": 2062,
      "Ġhead": 2063,
      "Ġplan": 2064,
      "Ġ2024": 2065,
      "Ġdisco": 2066,
      "Ġgoal": 2067,
      "Ġincrease": 2068,
      "such": 2069,
      "Ġaccording": 2070,
      "Ġcentury": 2071,
      "Ġlocal": 2072,
      "Ġelements": 2073,
      "Ġderivative": 2074,
      "tocol": 2075,
      "21": 2076,
      "There": 2077,
      "pons": 2078,
      "},": 2079,
      "Ġ8": 2080,
      "Ġself": 2081,
      "Ġcateg": 2082,
      "Ġmed": 2083,
      "Ġreward": 2084,
      "Ġel": 2085,
      "ĠIf": 2086,
      "Ġsepar": 2087,
      "oph": 2088,
      "anguage": 2089,
      "Ġgenerated": 2090,
      "ĠWh": 2091,
      "ĠOne": 2092,
      "Ġupd": 2093,
      "Ġcommonly": 2094,
      "Ġrob": 2095,
      "Ġcapabilities": 2096,
      "Ġways": 2097,
      "ĠProtocol": 2098,
      "NNs": 2099,
      "Ġlogic": 2100,
      "Ġanalyz": 2101,
      "Ġprevious": 2102,
      "Ġinfinites": 2103,
      "Ġbusiness": 2104,
      "Ġindividual": 2105,
      "://": 2106,
      "TTP": 2107,
      "aS": 2108,
      "rid": 2109,
      "sing": 2110,
      "tun": 2111,
      "Ġ0": 2112,
      "Ġut": 2113,
      "Ġmis": 2114,
      "arl": 2115,
      "Ġbest": 2116,
      "Ġfurther": 2117,
      "Ġthread": 2118,
      "raph": 2119,
      "pec": 2120,
      "Ġimp": 2121,
      "Ġuntil": 2122,
      "Ġado": 2123,
      "Ġacross": 2124,
      "Ġindic": 2125,
      "ologies": 2126,
      "Ġdefinition": 2127,
      "Ġrepresentation": 2128,
      "Ġamong": 2129,
      "Ġreferred": 2130,
      "Ġinfrastructure": 2131,
      "Ġdefine": 2132,
      "TML": 2133,
      "Ġpatterns": 2134,
      "Ġhypothesis": 2135,
      "Ġrelationship": 2136,
      "Ġtrue": 2137,
      "Ġissues": 2138,
      "37": 2139,
      "39": 2140,
      "AS": 2141,
      "Com": 2142,
      "earch": 2143,
      "Ġed": 2144,
      "Ġaround": 2145,
      "Ġcaus": 2146,
      "alth": 2147,
      "aring": 2148,
      "Ġfine": 2149,
      "Ġhtt": 2150,
      "ĠAPI": 2151,
      "Ġexplicit": 2152,
      "own": 2153,
      "Ġvery": 2154,
      "ĠMark": 2155,
      "Ġunits": 2156,
      "acks": 2157,
      "Ġuseful": 2158,
      "ĠRe": 2159,
      "aps": 2160,
      "Ġemploy": 2161,
      "Ġbecome": 2162,
      "Ġproviders": 2163,
      "Ġunderlying": 2164,
      "Ġoptimal": 2165,
      "Ġrepresented": 2166,
      "ĠUniversity": 2167,
      "Ġbias": 2168,
      "Ġconstruct": 2169,
      "Ġallocation": 2170,
      "Ġbasic": 2171,
      "Ġproperties": 2172,
      "Ġassociated": 2173,
      "Ġsymb": 2174,
      "mediate": 2175,
      "Ġespecially": 2176,
      "Python": 2177,
      "aaS": 2178,
      "lob": 2179,
      "mit": 2180,
      "pr": 2181,
      "ta": 2182,
      "ton": 2183,
      "orient": 2184,
      "Ġcross": 2185,
      "Ġmedia": 2186,
      "Ġfail": 2187,
      "Ġthus": 2188,
      "Ġlat": 2189,
      "Ġhist": 2190,
      "odes": 2191,
      "ĠSer": 2192,
      "Ġinteract": 2193,
      "ants": 2194,
      "arily": 2195,
      "Ġrespons": 2196,
      "Ġfeed": 2197,
      "Ġnumer": 2198,
      "Ġinstance": 2199,
      "Ġreli": 2200,
      "ological": 2201,
      "Ġformal": 2202,
      "Ġprim": 2203,
      "Ġactiv": 2204,
      "Ġparticularly": 2205,
      "Ġefficiency": 2206,
      "Ġconcepts": 2207,
      "Ġconcerns": 2208,
      "Ġrefers": 2209,
      ")=": 2210,
      "44": 2211,
      "68": 2212,
      "Al": 2213,
      "An": 2214,
      "cc": 2215,
      "ffor": 2216,
      "isions": 2217,
      "Ġdig": 2218,
      "Ġlist": 2219,
      "Ġnormal": 2220,
      "Ġhost": 2221,
      "Ġbegan": 2222,
      "Ġge": 2223,
      "ĠSc": 2224,
      "Ġleast": 2225,
      "Ġrange": 2226,
      "ĠBy": 2227,
      "Ġfund": 2228,
      "Ġvariety": 2229,
      "ipedia": 2230,
      "conom": 2231,
      "Ġexecuted": 2232,
      "Ġcapable": 2233,
      "ifying": 2234,
      "âĪĴ": 2235,
      "Ġtranslation": 2236,
      "Ġneurons": 2237,
      "Ġmaintain": 2238,
      "61": 2239,
      "70": 2240,
      "IS": 2241,
      "ee": 2242,
      "miss": 2243,
      "po": 2244,
      "pil": 2245,
      "right": 2246,
      "ination": 2247,
      "ises": 2248,
      "Ġmo": 2249,
      "Ġmas": 2250,
      "arm": 2251,
      "lear": 2252,
      "ash": 2253,
      "ements": 2254,
      "ĠAm": 2255,
      "pervised": 2256,
      "izes": 2257,
      "ĠInt": 2258,
      "ĠMany": 2259,
      "acy": 2260,
      "ĠJIT": 2261,
      "Ġdecoder": 2262,
      "Ġinstead": 2263,
      "Ġassum": 2264,
      "Ġ2025": 2265,
      "Ġpoints": 2266,
      "nother": 2267,
      "Ġequations": 2268,
      "Ġinflu": 2269,
      "Ġbuilt": 2270,
      "Ġdevices": 2271,
      "Ġpaper": 2272,
      "Ġzero": 2273,
      "Ġvideo": 2274,
      "RL": 2275,
      "ping": 2276,
      "ply": 2277,
      "pag": 2278,
      "sue": 2279,
      "ĠQ": 2280,
      "ĠY": 2281,
      "Ġess": 2282,
      "Ġte": 2283,
      "onstr": 2284,
      "atory": 2285,
      "enc": 2286,
      "Ġmon": 2287,
      "Ġdown": 2288,
      "usion": 2289,
      "Ġrepl": 2290,
      "Ġeth": 2291,
      "Ġlower": 2292,
      "abor": 2293,
      "Ġbyt": 2294,
      "rior": 2295,
      "ries": 2296,
      "Ġmaxim": 2297,
      "Ġtraditional": 2298,
      "ĠRes": 2299,
      "Ġstates": 2300,
      "Ġshared": 2301,
      "Ġemerg": 2302,
      "Ġhealth": 2303,
      "Ġrelational": 2304,
      "Ġ2022": 2305,
      "Ġwriting": 2306,
      "Ġ1990": 2307,
      "Ġexpression": 2308,
      "ergy": 2309,
      "Ġprivate": 2310,
      "Ġarrays": 2311,
      "Ġdemonstr": 2312,
      "Ġwidely": 2313,
      "embly": 2314,
      "fficient": 2315,
      "Ġdiag": 2316,
      "oriented": 2317,
      "Ġfundam": 2318,
      "AN": 2319,
      "For": 2320,
      "QL": 2321,
      "fit": 2322,
      "ped": 2323,
      "Ġtakes": 2324,
      "Ġsens": 2325,
      "orpor": 2326,
      "Ġbre": 2327,
      "Ġbrain": 2328,
      "Ġoff": 2329,
      "Ġtool": 2330,
      "Ġhowever": 2331,
      "ĠTo": 2332,
      "Ġver": 2333,
      "Ġrules": 2334,
      "Ġclient": 2335,
      "Ġprec": 2336,
      "ĠHTTP": 2337,
      "ĠJo": 2338,
      "Ġrespon": 2339,
      "ĠUS": 2340,
      "Ġdecisions": 2341,
      "Ġsimple": 2342,
      "Ġprototy": 2343,
      "Ġproduced": 2344,
      "Ġoutputs": 2345,
      "Ġcollect": 2346,
      "Ġlibraries": 2347,
      "rices": 2348,
      "Ġwords": 2349,
      "Ġembedded": 2350,
      "Ġobserv": 2351,
      "Ġstarted": 2352,
      "Ġunderstanding": 2353,
      "Ġsolutions": 2354,
      "which": 2355,
      "Ġsegment": 2356,
      "Ġchalleng": 2357,
      "Ġhttps": 2358,
      "51": 2359,
      "52": 2360,
      "63": 2361,
      "65": 2362,
      "67": 2363,
      "Th": 2364,
      "ave": 2365,
      "gener": 2366,
      "pi": 2367,
      "where": 2368,
      "Ġ---": 2369,
      "ond": 2370,
      "isation": 2371,
      "Ġdid": 2372,
      "Ġbound": 2373,
      "Ġtop": 2374,
      "Ġeconom": 2375,
      "Ġissue": 2376,
      "Ġglob": 2377,
      "Ġalthough": 2378,
      "Ġsug": 2379,
      "Ġareas": 2380,
      "ird": 2381,
      "Ġcontrast": 2382,
      "Ġinterest": 2383,
      "Ġmatrices": 2384,
      "Ġrecom": 2385,
      "Ġpointer": 2386,
      "Ġdetail": 2387,
      "Ġhyper": 2388,
      "Ġpopulation": 2389,
      "Ġintegral": 2390,
      "Ġversions": 2391,
      "Ġdomin": 2392,
      "cale": 2393,
      "Ġremain": 2394,
      "wiki": 2395,
      "wikipedia": 2396,
      "Ġfiles": 2397,
      "ĠSource": 2398,
      "Ġrisk": 2399,
      "38": 2400,
      "48": 2401,
      "hn": 2402,
      "ily": 2403,
      "man": 2404,
      "ou": 2405,
      "Ġtend": 2406,
      "Ġaffect": 2407,
      "ins": 2408,
      "Ġsw": 2409,
      "Ġcore": 2410,
      "Ġcop": 2411,
      "itu": 2412,
      "anced": 2413,
      "Ġden": 2414,
      "Ġdone": 2415,
      "uss": 2416,
      "Ġearl": 2417,
      "Ġlate": 2418,
      "Ġnull": 2419,
      "ulner": 2420,
      "ĠTuring": 2421,
      "Ġforms": 2422,
      "Ġgre": 2423,
      "Ġalong": 2424,
      "Ġexact": 2425,
      "Ġextern": 2426,
      "Ġvis": 2427,
      "Ġvulner": 2428,
      "ĠIP": 2429,
      "ĠIS": 2430,
      "respon": 2431,
      "ograph": 2432,
      "Ġparad": 2433,
      "ĠWorld": 2434,
      "achine": 2435,
      "ĠEuro": 2436,
      "ĠOn": 2437,
      "),[": 2438,
      "Ġdevelopers": 2439,
      "}}\\": 2440,
      "ecode": 2441,
      "Ġadded": 2442,
      "Ġrecur": 2443,
      "Ġcommer": 2444,
      "Ġworks": 2445,
      "supervised": 2446,
      "Ġregression": 2447,
      "Ġrout": 2448,
      "Ġinternal": 2449,
      "strict": 2450,
      "Ġarray": 2451,
      "mathb": 2452,
      "Ġdeli": 2453,
      "Ġstored": 2454,
      "Ġscientific": 2455,
      "ĠEnglish": 2456,
      "Ġbroad": 2457,
      "Ġconnection": 2458,
      "ĠMarkov": 2459,
      "31": 2460,
      "36": 2461,
      "56": 2462,
      "DP": 2463,
      "If": 2464,
      "STM": 2465,
      "ches": 2466,
      "ges": 2467,
      "know": 2468,
      "mber": 2469,
      "ood": 2470,
      "vant": 2471,
      "}^{": 2472,
      "Ġaim": 2473,
      "Ġaud": 2474,
      "Ġable": 2475,
      "onom": 2476,
      "atively": 2477,
      "rete": 2478,
      "Ġmess": 2479,
      "Ġann": 2480,
      "Ġdra": 2481,
      "Ġlik": 2482,
      "ilos": 2483,
      "Ġaspect": 2484,
      "Ġstream": 2485,
      "Ġcompared": 2486,
      "irc": 2487,
      "Ġneg": 2488,
      "Ġenh": 2489,
      "ĠWhen": 2490,
      "ibn": 2491,
      "Ġobtain": 2492,
      "Ġshort": 2493,
      "vice": 2494,
      "Ġtechnologies": 2495,
      "Ġstandards": 2496,
      "Ġinvest": 2497,
      "Ġcorrespon": 2498,
      "value": 2499,
      "Ġentire": 2500,
      "Ġestab": 2501,
      "Ġallocated": 2502,
      "Ġreduce": 2503,
      "Ġblock": 2504,
      "Ġbelie": 2505,
      "âģ¡": 2506,
      "Ġnecessary": 2507,
      "trained": 2508,
      "Ġconnected": 2509,
      "indows": 2510,
      "Ġsuggest": 2511,
      "ĠEurope": 2512,
      "St": 2513,
      "ched": 2514,
      "dition": 2515,
      "dient": 2516,
      "dots": 2517,
      "gress": 2518,
      "scale": 2519,
      "ym": 2520,
      "ÏĢ": 2521,
      "Ġ&": 2522,
      "ining": 2523,
      "Ġcy": 2524,
      "Ġfour": 2525,
      "Ġfull": 2526,
      "aster": 2527,
      "els": 2528,
      "ulated": 2529,
      "Ġusage": 2530,
      "ifi": 2531,
      "Ġvol": 2532,
      "ĠSince": 2533,
      "adem": 2534,
      "ivity": 2535,
      "Ġsee": 2536,
      "enerative": 2537,
      "duct": 2538,
      "ously": 2539,
      "Ġnetworking": 2540,
      "Ġcho": 2541,
      "Ġservers": 2542,
      "Ġindex": 2543,
      "Ġindust": 2544,
      "Ġdifference": 2545,
      "Ġinputs": 2546,
      "Ġhumans": 2547,
      "Ġallowing": 2548,
      "Ġagents": 2549,
      "Ġrunning": 2550,
      "Ġsignal": 2551,
      "Ġjob": 2552,
      "ixed": 2553,
      "Ġpointers": 2554,
      "Ġfields": 2555,
      "Ġexperience": 2556,
      "Ġlimited": 2557,
      "Ġlearned": 2558,
      "Ġerrors": 2559,
      "Ġinvolves": 2560,
      "Ġidea": 2561,
      "Ġsolution": 2562,
      "Ġsurve": 2563,
      "Ġbench": 2564,
      "Ġmeaning": 2565,
      "Ġappear": 2566,
      "attention": 2567,
      "ccording": 2568,
      "Ġgeomet": 2569,
      "mission": 2570,
      "Ġessential": 2571,
      "Ġbytecode": 2572,
      "Ġfundamental": 2573,
      "ibniz": 2574,
      "43": 2575,
      "45": 2576,
      "64": 2577,
      "Some": 2578,
      "purpose": 2579,
      "sers": 2580,
      "ĠâĢĵ": 2581,
      "Ġtimes": 2582,
      "Ġcar": 2583,
      "Ġcogn": 2584,
      "Ġprior": 2585,
      "Ġinform": 2586,
      "Ġbillion": 2587,
      "Ġrestrict": 2588,
      "Ġlack": 2589,
      "Ġprof": 2590,
      "Ġproced": 2591,
      "Ġstack": 2592,
      "ifically": 2593,
      "ĠSim": 2594,
      "Ġmodeling": 2595,
      "ands": 2596,
      "ached": 2597,
      "ĠGPU": 2598,
      "Ġhaving": 2599,
      "igned": 2600,
      "ĠHTML": 2601,
      "Ġoperation": 2602,
      "Ġparts": 2603,
      "Ġdistin": 2604,
      "Ġsubject": 2605,
      "Ġproviding": 2606,
      "Ġneeds": 2607,
      "Ġagain": 2608,
      "Ġdetect": 2609,
      "Ġwrite": 2610,
      "Ġartic": 2611,
      "Ġencoding": 2612,
      "Ġfinal": 2613,
      "ĠChat": 2614,
      "Ġresource": 2615,
      "Ġreference": 2616,
      "Ġcomplexity": 2617,
      "Ġstrateg": 2618,
      "Ġlonger": 2619,
      "Ġ1980": 2620,
      "Ġelement": 2621,
      "Ġparameter": 2622,
      "Ġprivacy": 2623,
      "Ġbook": 2624,
      "Ġapproximation": 2625,
      "Ġdocument": 2626,
      "ĠLeibniz": 2627,
      "Ġdigital": 2628,
      "\")": 2629,
      "57": 2630,
      "69": 2631,
      "80": 2632,
      "Con": 2633,
      "De": 2634,
      "ET": 2635,
      "ape": 2636,
      "by": 2637,
      "oper": 2638,
      "tificial": 2639,
      "we": 2640,
      "}\\": 2641,
      "Ġtable": 2642,
      "atab": 2643,
      "orph": 2644,
      "Ġcirc": 2645,
      "Ġpres": 2646,
      "Ġpack": 2647,
      "Ġmal": 2648,
      "Ġmicro": 2649,
      "Ġded": 2650,
      "Ġbran": 2651,
      "uth": 2652,
      "ulate": 2653,
      "Ġbeg": 2654,
      "Ġcompany": 2655,
      "Ġaltern": 2656,
      "rie": 2657,
      "ruction": 2658,
      "Ġintermediate": 2659,
      "Ġacadem": 2660,
      "ĠBig": 2661,
      "ĠEC": 2662,
      "Ġkind": 2663,
      "Ġevents": 2664,
      "Ġassembly": 2665,
      "ception": 2666,
      "ĠStandard": 2667,
      "Ġruntime": 2668,
      "Ġpredictions": 2669,
      "Ġexecute": 2670,
      "Ġweight": 2671,
      "Ġimproved": 2672,
      "Ġenvironments": 2673,
      "Ġscale": 2674,
      "Ġexisting": 2675,
      "rend": 2676,
      "...": 2677,
      "Ġprevent": 2678,
      "Ġminim": 2679,
      "ength": 2680,
      "Ġdevice": 2681,
      "Ġpractice": 2682,
      "Ġargued": 2683,
      "olution": 2684,
      "Ġdataset": 2685,
      "Ġexpected": 2686,
      "Ġsafety": 2687,
      "ĠWhile": 2688,
      "Ġrecomm": 2689,
      "32": 2690,
      "49": 2691,
      "62": 2692,
      "90": 2693,
      "98": 2694,
      "gorith": 2695,
      "ming": 2696,
      "most": 2697,
      "spec": 2698,
      "ven": 2699,
      "Ġ+": 2700,
      "Ġaver": 2701,
      "Ġsitu": 2702,
      "Ġop": 2703,
      "Ġpur": 2704,
      "Ġmass": 2705,
      "Ġfl": 2706,
      "Ġflu": 2707,
      "Ġeffor": 2708,
      "Ġthird": 2709,
      "Ġnames": 2710,
      "raction": 2711,
      "odern": 2712,
      "Ġformat": 2713,
      "Ġcompet": 2714,
      "Ġonline": 2715,
      "Ġvision": 2716,
      "Ġleg": 2717,
      "Ġsyn": 2718,
      "Ġsec": 2719,
      "Ġens": 2720,
      "Ġenab": 2721,
      "Ġrule": 2722,
      "Ġclos": 2723,
      "ĠWith": 2724,
      "Ġtransport": 2725,
      "}}(": 2726,
      "ĠNLP": 2727,
      "Ġstatements": 2728,
      "ecause": 2729,
      "Ġquality": 2730,
      "Ġworking": 2731,
      "Ġdefines": 2732,
      "Ġsupported": 2733,
      "ĠUnited": 2734,
      "Ġdistributions": 2735,
      "Ġaccura": 2736,
      "Ġavoid": 2737,
      "Ġfollowed": 2738,
      "Ġidentify": 2739,
      "ĠComputer": 2740,
      "Ġtechnique": 2741,
      "inux": 2742,
      "ront": 2743,
      "Ġgradient": 2744,
      "Ġproducts": 2745,
      "Ġconvention": 2746,
      "Ġchec": 2747,
      "idden": 2748,
      "Ġincreasingly": 2749,
      "Ġmedical": 2750,
      "learning": 2751,
      "Ġglobal": 2752,
      "Ġexternal": 2753,
      "Ġparadig": 2754,
      "Ġcommercial": 2755,
      "known": 2756,
      "Ġaccuracy": 2757,
      ",}": 2758,
      "58": 2759,
      "EC": 2760,
      "PE": 2761,
      "aim": 2762,
      "pri": 2763,
      "ered": 2764,
      "atic": 2765,
      "Ġsampl": 2766,
      "Ġsense": 2767,
      "Ġinher": 2768,
      "Ġinference": 2769,
      "ane": 2770,
      "Ġfast": 2771,
      "Ġtoget": 2772,
      "eler": 2773,
      "Ġcompos": 2774,
      "ided": 2775,
      "Ġgain": 2776,
      "Ġvary": 2777,
      "forward": 2778,
      "Ġenergy": 2779,
      "Ġunc": 2780,
      "Ġunit": 2781,
      "Ġclaim": 2782,
      "Ġ2017": 2783,
      "Ġ2014": 2784,
      "ĠLinux": 2785,
      "plication": 2786,
      "ĠWide": 2787,
      "Ġstatic": 2788,
      "Ġcompiled": 2789,
      "Ġsubsequ": 2790,
      "egin": 2791,
      "Ġautonom": 2792,
      "Ġclasses": 2793,
      "Ġtransformers": 2794,
      "comput": 2795,
      "Ġincreased": 2796,
      "Ġstudies": 2797,
      "ĠUnix": 2798,
      "Ġparallelism": 2799,
      "Ġbiological": 2800,
      "Ġacceler": 2801,
      "Ġcentral": 2802,
      "ĠComm": 2803,
      "Ġchanges": 2804,
      "Ġlevels": 2805,
      "Ġinterpreted": 2806,
      "Ġsupervised": 2807,
      "Ġobserved": 2808,
      "Ġspecialized": 2809,
      "Ġsuccessful": 2810,
      "Ġideas": 2811,
      "Ġleading": 2812,
      "Ġautomatic": 2813,
      "ĠNewton": 2814,
      "Ġplatforms": 2815,
      "Ġdeployment": 2816,
      "Ġdiscipline": 2817,
      "Ġsemant": 2818,
      "Ġinterrupt": 2819,
      "Ġhistory": 2820,
      "ĠJohn": 2821,
      "Ġchallenges": 2822,
      "ĠChatGPT": 2823,
      "Ġtogether": 2824,
      "46": 2825,
      "59": 2826,
      "OS": 2827,
      "come": 2828,
      "ging": 2829,
      "pass": 2830,
      "ring": 2831,
      "uc": 2832,
      "Ġ$": 2833,
      "Ġtree": 2834,
      "hel": 2835,
      "Ġslow": 2836,
      "ising": 2837,
      "Ġpol": 2838,
      "Ġmot": 2839,
      "rop": 2840,
      "lex": 2841,
      "Ġlit": 2842,
      "Ġloss": 2843,
      "Ġnam": 2844,
      "Ġhidden": 2845,
      "empor": 2846,
      "ithmet": 2847,
      "abil": 2848,
      "aging": 2849,
      "ĠAp": 2850,
      "vered": 2851,
      "ĠMet": 2852,
      "Ġ10": 2853,
      "ferences": 2854,
      "Ġinterval": 2855,
      "ĠLanguage": 2856,
      "ĠLSTM": 2857,
      "ĠWindows": 2858,
      "ĠHe": 2859,
      "Ġdeclar": 2860,
      "Ġlarger": 2861,
      "Ġsimpl": 2862,
      "Ġbecom": 2863,
      "Ġcomplete": 2864,
      "Ġphilos": 2865,
      "Ġprediction": 2866,
      "Ġjo": 2867,
      "Ġregular": 2868,
      "Ġweights": 2869,
      "000": 2870,
      "Ġrelevant": 2871,
      "Ġidentified": 2872,
      "Ġaddresses": 2873,
      "Ġintegration": 2874,
      "Ġexpressions": 2875,
      "Ġretrie": 2876,
      "Ġcontains": 2877,
      "Ġkeyword": 2878,
      "Ġfinding": 2879,
      "Ġorganization": 2880,
      "Ġsaid": 2881,
      "Ġachieve": 2882,
      "Ġtheorem": 2883,
      "processor": 2884,
      "Ġautomatically": 2885,
      "ways": 2886,
      "Ġinterface": 2887,
      "Ġauthors": 2888,
      "itute": 2889,
      "Ġscripting": 2890,
      "Ġfair": 2891,
      "Ġcomponents": 2892,
      "Ġrobot": 2893,
      "Ġimpact": 2894,
      "ĠResearch": 2895,
      "Ġcopy": 2896,
      "Ġcognitive": 2897,
      "Ġalternative": 2898,
      "ĠECMA": 2899,
      "ithmetic": 2900,
      "42": 2901,
      "82": 2902,
      "Java": 2903,
      "^{\\": 2904,
      "big": 2905,
      "bage": 2906,
      "bject": 2907,
      "back": 2908,
      "iod": 2909,
      "ler": 2910,
      "min": 2911,
      "more": 2912,
      "oks": 2913,
      "sh": 2914,
      "tal": 2915,
      "tics": 2916,
      "Î¸": 2917,
      "âĭ": 2918,
      "Ġ'": 2919,
      "Ġ^{": 2920,
      "Ġtre": 2921,
      "Ġturn": 2922,
      "Ġtreat": 2923,
      "inary": 2924,
      "only": 2925,
      "espre": 2926,
      "Ġdimens": 2927,
      "ley": 2928,
      "omorph": 2929,
      "used": 2930,
      "uster": 2931,
      "Ġep": 2932,
      "Ġnodes": 2933,
      "imals": 2934,
      "Ġsto": 2935,
      "aby": 2936,
      "idence": 2937,
      "ote": 2938,
      "Ġgram": 2939,
      "Ġmodules": 2940,
      "ĠSe": 2941,
      "ially": 2942,
      "ived": 2943,
      "ultane": 2944,
      "Ġ18": 2945,
      "ards": 2946,
      "Ġclock": 2947,
      "propag": 2948,
      "Ġaccur": 2949,
      "Ġfunctionality": 2950,
      "Ġperiod": 2951,
      "avig": 2952,
      "ĠOS": 2953,
      "Ġoperator": 2954,
      "Ġperforming": 2955,
      "Ġtechnical": 2956,
      "Ġvalid": 2957,
      "Ġsupports": 2958,
      "Ġdetection": 2959,
      "Ġcoll": 2960,
      "ishing": 2961,
      "Ġexpressed": 2962,
      "max": 2963,
      "Ġtesting": 2964,
      "load": 2965,
      "Ġbloc": 2966,
      "Ġwebsite": 2967,
      "Ġsignificantly": 2968,
      "Ġconcerned": 2969,
      "Ġpotentially": 2970,
      "Ġperson": 2971,
      "Ġwidespre": 2972,
      "Ġreported": 2973,
      "ĠCloud": 2974,
      "Ġdescribes": 2975,
      "Ġattempt": 2976,
      "Ġlink": 2977,
      "Ġinterfaces": 2978,
      "Ġreturns": 2979,
      "Ġcommunication": 2980,
      "Ġgovernment": 2981,
      "Ġdescription": 2982,
      "ĠISO": 2983,
      "mathbb": 2984,
      "Ġacademic": 2985,
      "JavaScript": 2986,
      "Ġwidespread": 2987,
      ")\\": 2988,
      "41": 2989,
      "53": 2990,
      "55": 2991,
      "66": 2992,
      "71": 2993,
      "77": 2994,
      "95": 2995,
      "LLM": 2996,
      "RP": 2997,
      "cos": 2998,
      "lin": 2999,
      "off": 3000,
      "pite": 3001,
      "trol": 3002,
      "writ": 3003,
      "eric": 3004,
      "erial": 3005,
      "atch": 3006,
      "atistics": 3007,
      "Ġsat": 3008,
      "alse": 3009,
      "iting": 3010,
      "Ġmillion": 3011,
      "Ġflow": 3012,
      "Ġoffic": 3013,
      "Ġwide": 3014,
      "Ġtoward": 3015,
      "Ġconcur": 3016,
      "Ġalways": 3017,
      "ays": 3018,
      "Ġsuite": 3019,
      "Ġvoc": 3020,
      "ĠIm": 3021,
      "Ġiter": 3022,
      "Ġcompute": 3023,
      "Ġunivers": 3024,
      "ĠPh": 3025,
      "ĠPl": 3026,
      "Ġcluster": 3027,
      "ending": 3028,
      "ĠOther": 3029,
      "ĠNe": 3030,
      "iction": 3031,
      "Ġdifferential": 3032,
      "Ġsimultane": 3033,
      "Ġdistingu": 3034,
      "Ġaccessed": 3035,
      "Ġcreating": 3036,
      "Ġdiscrete": 3037,
      "Ġallowed": 3038,
      "Ġsolving": 3039,
      "Ġgood": 3040,
      "Ġgoals": 3041,
      "ĠInternational": 3042,
      "Ġgives": 3043,
      "Ġcenters": 3044,
      "theta": 3045,
      "Ġintegrated": 3046,
      "Ġrare": 3047,
      "Ġcosts": 3048,
      "Ġanalytics": 3049,
      "includ": 3050,
      "Ġprompt": 3051,
      "Ġlook": 3052,
      "Ġinterpretation": 3053,
      "Ġestimated": 3054,
      "Ġbuild": 3055,
      "Ġquestions": 3056,
      "Ġachieved": 3057,
      "Ġeventually": 3058,
      "Ġbene": 3059,
      "Ġdocuments": 3060,
      "Ġetc": 3061,
      "Ġseparate": 3062,
      "ĠService": 3063,
      "Ġnumerical": 3064,
      "Ġprototype": 3065,
      "Ġswit": 3066,
      "Ġvolum": 3067,
      "Deep": 3068,
      "atabase": 3069,
      "Ġgrammar": 3070,
      ";[": 3071,
      "Big": 3072,
      "linear": 3073,
      "rimin": 3074,
      "sin": 3075,
      "ucle": 3076,
      "wise": 3077,
      "Ġpost": 3078,
      "iti": 3079,
      "Ġant": 3080,
      "Ġfaster": 3081,
      "Ġfixed": 3082,
      "use": 3083,
      "Ġlingu": 3084,
      "ulations": 3085,
      "Ġonce": 3086,
      "Ġget": 3087,
      "ifier": 3088,
      "term": 3089,
      "Ġselect": 3090,
      "Ġenables": 3091,
      "ĠMost": 3092,
      "ache": 3093,
      "Ġ2016": 3094,
      "Ġ2018": 3095,
      "Ġ2015": 3096,
      "Ġ2000": 3097,
      "Ġarbit": 3098,
      "Ġarithmetic": 3099,
      "plications": 3100,
      "Ġtransfer": 3101,
      "ĠEach": 3102,
      "Ġmaterial": 3103,
      "ensive": 3104,
      "ĠThus": 3105,
      "Ġstatement": 3106,
      "Ġoverhead": 3107,
      "Ġperformed": 3108,
      "Ġattack": 3109,
      "Ġprogrammer": 3110,
      "pha": 3111,
      "Ġprotection": 3112,
      "Ġrepresentations": 3113,
      "Ġcomplet": 3114,
      "elligent": 3115,
      "Ġrequirements": 3116,
      "Ġengines": 3117,
      "âĢĬčĊ": 3118,
      "ĠChin": 3119,
      "ready": 3120,
      "Ġbrowsers": 3121,
      "Ġnature": 3122,
      "Ġscalar": 3123,
      "Ġlogical": 3124,
      "Ġsmaller": 3125,
      "Ġbackpropag": 3126,
      "Ġimprovements": 3127,
      "Ġadvant": 3128,
      "Ġpersonal": 3129,
      "Ġtheoretical": 3130,
      "Ġconfig": 3131,
      "Ġdomains": 3132,
      "âģł": 3133,
      "Ġdatasets": 3134,
      "Ġfrequently": 3135,
      "tuned": 3136,
      "Ġreplac": 3137,
      "Ġvisual": 3138,
      "Ġaspects": 3139,
      "ifiers": 3140,
      "specific": 3141,
      "Ġphilosoph": 3142,
      "ĠECMAScript": 3143,
      "Ġblocks": 3144,
      "Ġarbitr": 3145,
      ",\\": 3146,
      "47": 3147,
      "54": 3148,
      "89": 3149,
      "Multi": 3150,
      "ake": 3151,
      "cent": 3152,
      "ffer": 3153,
      "iple": 3154,
      "ians": 3155,
      "iences": 3156,
      "ope": 3157,
      "pid": 3158,
      "pare": 3159,
      "world": 3160,
      "enced": 3161,
      "Ġpast": 3162,
      "Ġmind": 3163,
      "Ġdri": 3164,
      "ices": 3165,
      "icians": 3166,
      "rote": 3167,
      "Ġful": 3168,
      "Ġwrote": 3169,
      "Ġtoo": 3170,
      "chron": 3171,
      "Ġgames": 3172,
      "ifies": 3173,
      "Ġvend": 3174,
      "ude": 3175,
      "iven": 3176,
      "ivision": 3177,
      "umn": 3178,
      "ored": 3179,
      "Ġrate": 3180,
      "Ġincorpor": 3181,
      "osen": 3182,
      "gramming": 3183,
      "Ġinteraction": 3184,
      "ĠDif": 3185,
      "Ġacqu": 3186,
      "ends": 3187,
      "ouse": 3188,
      "Ġfunctional": 3189,
      "ounced": 3190,
      "ĠObject": 3191,
      "ĠRL": 3192,
      "matrix": 3193,
      "ints": 3194,
      "Ġcred": 3195,
      "Ġclassified": 3196,
      "Ġoptimizations": 3197,
      "ĠStates": 3198,
      "Ġcolumn": 3199,
      "Ġbiases": 3200,
      "ĠAll": 3201,
      "aken": 3202,
      "Ġrelease": 3203,
      "Ġmanaged": 3204,
      "Ġcharacters": 3205,
      "Ġstring": 3206,
      "Ġstrong": 3207,
      "Ġautomated": 3208,
      "Ġstructured": 3209,
      "Ġtaking": 3210,
      "Ġcombined": 3211,
      "Ġwhole": 3212,
      "Ġ1970": 3213,
      "marks": 3214,
      "Ġshowed": 3215,
      "Ġrequests": 3216,
      "ĠExamples": 3217,
      "Ġamounts": 3218,
      "Ġrisks": 3219,
      "Ġthought": 3220,
      "ERT": 3221,
      "iddle": 3222,
      "Ġauthor": 3223,
      "Ġrespectively": 3224,
      "Ġprimary": 3225,
      "ĠAmeric": 3226,
      "Ġethical": 3227,
      "Ġresponse": 3228,
      "Ġvulnerabilities": 3229,
      "Ġestabl": 3230,
      "Ġgeometry": 3231,
      "Ġbranch": 3232,
      "Ġbegin": 3233,
      "Ġvocab": 3234,
      "72": 3235,
      "73": 3236,
      "74": 3237,
      "78": 3238,
      "Cl": 3239,
      "EE": 3240,
      "Generative": 3241,
      "ML": 3242,
      "Pro": 3243,
      "SS": 3244,
      "brid": 3245,
      "begin": 3246,
      "dec": 3247,
      "gence": 3248,
      "me": 3249,
      "mark": 3250,
      "rm": 3251,
      "sc": 3252,
      "tok": 3253,
      "ww": 3254,
      "yond": 3255,
      "Ġ5": 3256,
      "Ġrow": 3257,
      "atives": 3258,
      "Ġsl": 3259,
      "Ġsoci": 3260,
      "oring": 3261,
      "Ġcare": 3262,
      "esian": 3263,
      "Ġpurpose": 3264,
      "itig": 3265,
      "Ġmid": 3266,
      "icated": 3267,
      "arial": 3268,
      "Ġfit": 3269,
      "Ġfra": 3270,
      "Ġfore": 3271,
      "Ġfalse": 3272,
      "omen": 3273,
      "omial": 3274,
      "Ġreach": 3275,
      "Ġthin": 3276,
      "etic": 3277,
      "lyn": 3278,
      "rac": 3279,
      "ilit": 3280,
      "igning": 3281,
      "Ġcompression": 3282,
      "Ġcond": 3283,
      "Ġgen": 3284,
      "Ġalready": 3285,
      "Ġexh": 3286,
      "Ġexplo": 3287,
      "Ġsufficient": 3288,
      "ĠCO": 3289,
      "vert": 3290,
      "ĠSh": 3291,
      "ĠSuch": 3292,
      "Ġmaps": 3293,
      "perform": 3294,
      "Ġcomputations": 3295,
      "ĠMore": 3296,
      "source": 3297,
      "alled": 3298,
      "Ġcontribut": 3299,
      "Ġgenerating": 3300,
      "ĠDes": 3301,
      "illions": 3302,
      "Ġdeveloping": 3303,
      "ĠNational": 3304,
      "Ġprogrammers": 3305,
      "Ġplay": 3306,
      "Ġnews": 3307,
      "Ġdiscuss": 3308,
      "everal": 3309,
      "Ġupon": 3310,
      "Ġcorpor": 3311,
      "Ġcook": 3312,
      "Ġcapac": 3313,
      "Ġfinan": 3314,
      "Ġconstra": 3315,
      "Ġconstant": 3316,
      "Ġactual": 3317,
      "Ġtermin": 3318,
      "making": 3319,
      "Ġoriginally": 3320,
      "ĠAnd": 3321,
      "Ġcorrel": 3322,
      "Ġinternet": 3323,
      "Ġdepending": 3324,
      "Ġorganizations": 3325,
      "Ġcharacteristics": 3326,
      "Ġpractical": 3327,
      "ĠAda": 3328,
      "Ġexperiments": 3329,
      "Ġlimitations": 3330,
      "Ġattempts": 3331,
      "Ġexplain": 3332,
      "Ġprinciple": 3333,
      "Ġmanipulation": 3334,
      "Ġdisciplines": 3335,
      "Ġinfinitesimal": 3336,
      "Ġthreads": 3337,
      "Ġdemonstrated": 3338,
      "This": 3339,
      "Ġdetails": 3340,
      "Ġrecurrent": 3341,
      "Ġannounced": 3342,
      "Ġlikely": 3343,
      "Ġnegative": 3344,
      "Ġindustry": 3345,
      "Ġsampling": 3346,
      "abilistic": 3347,
      "Ġsimultaneously": 3348,
      "uclear": 3349,
      "Ġbackpropagation": 3350,
      ".)": 3351,
      "79": 3352,
      "84": 3353,
      "LL": 3354,
      "MP": 3355,
      "Net": 3356,
      "To": 3357,
      "When": 3358,
      "aking": 3359,
      "actions": 3360,
      "fix": 3361,
      "li": 3362,
      "mall": 3363,
      "oPE": 3364,
      "pir": 3365,
      "pace": 3366,
      "part": 3367,
      "ration": 3368,
      "son": 3369,
      "yp": 3370,
      "zon": 3371,
      "ĠZ": 3372,
      "ĠâĢ": 3373,
      "Ġtables": 3374,
      "atist": 3375,
      "atible": 3376,
      "eded": 3377,
      "isf": 3378,
      "Ġmob": 3379,
      "Ġdivid": 3380,
      "Ġbra": 3381,
      "Ġfar": 3382,
      "Ġfront": 3383,
      "Ġla": 3384,
      "stant": 3385,
      "rap": 3386,
      "erse": 3387,
      "Ġcompar": 3388,
      "plit": 3389,
      "Ġgame": 3390,
      "Ġgreat": 3391,
      "Ġalmost": 3392,
      "ĠAnother": 3393,
      "query": 3394,
      "ried": 3395,
      "seq": 3396,
      "ĠSQL": 3397,
      "iring": 3398,
      "Ġmac": 3399,
      "angle": 3400,
      "ival": 3401,
      "Ġseen": 3402,
      "ĠInter": 3403,
      "Ġimplicit": 3404,
      "Ġintended": 3405,
      "Ġenable": 3406,
      "Ġ16": 3407,
      "Ġnotation": 3408,
      "ĠGener": 3409,
      "Ġinterv": 3410,
      "Ġmanage": 3411,
      "Ġtravel": 3412,
      "Ġscen": 3413,
      "Ġtransformation": 3414,
      "Ġchain": 3415,
      "ĠOr": 3416,
      "ĠRNN": 3417,
      "Ġmultim": 3418,
      "Ġdisk": 3419,
      "Ġrecent": 3420,
      "Ġspecified": 3421,
      "Ġspecifically": 3422,
      "Ġemph": 3423,
      "Ġlargest": 3424,
      "Ġattacks": 3425,
      "Ġtypical": 3426,
      "Ġcreation": 3427,
      "comes": 3428,
      "Ġextended": 3429,
      "ĠAlso": 3430,
      "versarial": 3431,
      "Ġfounded": 3432,
      "Ġequal": 3433,
      "Ġinterpreter": 3434,
      "Ġrapid": 3435,
      "Ġmeasures": 3436,
      "Ġdepart": 3437,
      "CPL": 3438,
      "Ġdynamics": 3439,
      "Ġloop": 3440,
      "Ġcombination": 3441,
      "Ġeffects": 3442,
      "Ġdemand": 3443,
      "mathrm": 3444,
      "Ġdetermin": 3445,
      "Ġsteps": 3446,
      "Ġdescribe": 3447,
      "Ġconsumption": 3448,
      "Ġfrequency": 3449,
      "Ġevaluation": 3450,
      "Ġeasily": 3451,
      "Ġcomponent": 3452,
      "Ġgraphics": 3453,
      "Ġanswer": 3454,
      "ĠInstitute": 3455,
      "Ġplanning": 3456,
      "Ġrelationships": 3457,
      "point": 3458,
      "piler": 3459,
      "encies": 3460,
      "generated": 3461,
      "Ġdominant": 3462,
      "Ġearlier": 3463,
      "Ġaudio": 3464,
      "Ġkinds": 3465,
      "Ġrecommend": 3466,
      "Ġaverage": 3467,
      "Ġuncertain": 3468,
      "Ġliter": 3469,
      "Ġcopyright": 3470,
      "omorphism": 3471,
      "Ġsatisf": 3472,
      "including": 3473,
      "Ġconditions": 3474,
      "Ġfinancial": 3475,
      "Ġmobile": 3476,
      "Ġemphas": 3477,
      "76": 3478,
      "ID": 3479,
      "On": 3480,
      "\\\\": 3481,
      "ged": 3482,
      "mid": 3483,
      "nov": 3484,
      "tes": 3485,
      "with": 3486,
      "ying": 3487,
      "yper": 3488,
      "Ïĥ": 3489,
      "âŁ": 3490,
      "Ġtens": 3491,
      "information": 3492,
      "ereb": 3493,
      "erved": 3494,
      "orn": 3495,
      "Ġcause": 3496,
      "Ġcapt": 3497,
      "aligned": 3498,
      "Ġmitig": 3499,
      "roust": 3500,
      "Ġfam": 3501,
      "Ġfive": 3502,
      "oms": 3503,
      "Ġred": 3504,
      "Ġthous": 3505,
      "Ġlength": 3506,
      "Ġnuclear": 3507,
      "Ġhund": 3508,
      "une": 3509,
      "unction": 3510,
      "racle": 3511,
      "odel": 3512,
      "Ġcome": 3513,
      "ulating": 3514,
      "ulary": 3515,
      "emory": 3516,
      "Ġ(\"": 3517,
      "agn": 3518,
      "ĠAma": 3519,
      "istor": 3520,
      "see": 3521,
      "ĠInd": 3522,
      "Ġunsupervised": 3523,
      "rup": 3524,
      "Ġ2012": 3525,
      "Ġaccept": 3526,
      "Ġ1960": 3527,
      "ĠOSI": 3528,
      "}}=": 3529,
      "usters": 3530,
      "Ġoutcomes": 3531,
      "Ġadding": 3532,
      "Ġshare": 3533,
      "Ġattribut": 3534,
      "Ġdistance": 3535,
      "phi": 3536,
      "100": 3537,
      "Ġpositional": 3538,
      "ĠStroust": 3539,
      "Ġresulting": 3540,
      "Ġruns": 3541,
      "Ġregard": 3542,
      "ĠAlthough": 3543,
      "Ġexpert": 3544,
      "riven": 3545,
      "Ġpath": 3546,
      "Ġsequences": 3547,
      "Ġsimilarly": 3548,
      "Ġcontaining": 3549,
      "Ġfactor": 3550,
      "Ġfactors": 3551,
      "Ġhandle": 3552,
      "Ġpolicies": 3553,
      "Ġmeasurements": 3554,
      "Ġeffectively": 3555,
      "Ġpair": 3556,
      "urthermore": 3557,
      "Ġefficiently": 3558,
      "Ġgroups": 3559,
      "Ġexperiment": 3560,
      "Ġexperimental": 3561,
      "Ġarguments": 3562,
      "Ġcurrently": 3563,
      "Ġcritic": 3564,
      "Ġcustomers": 3565,
      "Ġdiscovery": 3566,
      "Ġelimin": 3567,
      "Ġpreviously": 3568,
      "Ġutil": 3569,
      "Ġadopted": 3570,
      "Ġdraw": 3571,
      "Ġsurvey": 3572,
      "ĠSimil": 3573,
      "Ġdistinct": 3574,
      "Ġagainst": 3575,
      "gorithms": 3576,
      "Ġsituations": 3577,
      "Ġfluid": 3578,
      "Ġnamed": 3579,
      "Ġhundred": 3580,
      "ĠAmazon": 3581,
      "ĠStroustrup": 3582,
      "81": 3583,
      "86": 3584,
      "Another": 3585,
      "CC": 3586,
      "Ex": 3587,
      "Most": 3588,
      "NI": 3589,
      "Since": 3590,
      "ares": 3591,
      "be": 3592,
      "cape": 3593,
      "day": 3594,
      "date": 3595,
      "flow": 3596,
      "frac": 3597,
      "gre": 3598,
      "pired": 3599,
      "Ġ_{": 3600,
      "Ġtrend": 3601,
      "ones": 3602,
      "also": 3603,
      "Ġban": 3604,
      "Ġface": 3605,
      "Ġflo": 3606,
      "Ġtotal": 3607,
      "Ġrely": 3608,
      "Ġlines": 3609,
      "Ġnavig": 3610,
      "Ġhier": 3611,
      "Ġhold": 3612,
      "Ġharm": 3613,
      "odal": 3614,
      "ĠTechn": 3615,
      "abs": 3616,
      "Ġconvers": 3617,
      "Ġdeal": 3618,
      "Ġdele": 3619,
      "ĠAt": 3620,
      "ĠAccording": 3621,
      "Ġsuit": 3622,
      "ĠCol": 3623,
      "Ġmodule": 3624,
      "ĠSch": 3625,
      "Ġwhose": 3626,
      "ĠMon": 3627,
      "ĠMult": 3628,
      "Ġrig": 3629,
      "Ġunknown": 3630,
      "Ġintercon": 3631,
      "Ġadj": 3632,
      "ĠBay": 3633,
      "ĠBecause": 3634,
      "Ġsources": 3635,
      "Ġscope": 3636,
      "Ġchosen": 3637,
      "ancements": 3638,
      "ĠOracle": 3639,
      "Ġmatch": 3640,
      "Ġoperate": 3641,
      "Ġoperational": 3642,
      "ĠNove": 3643,
      "Ġquick": 3644,
      "fined": 3645,
      "Ġcalls": 3646,
      "Ġevol": 3647,
      "Ġabove": 3648,
      "astic": 3649,
      "Ġconsists": 3650,
      "Ġmeet": 3651,
      "Ġprovider": 3652,
      "Ġaccessible": 3653,
      "Ġpositive": 3654,
      "Ġ2021": 3655,
      "Ġrepresents": 3656,
      "Ġagre": 3657,
      "Ġtransformations": 3658,
      "comm": 3659,
      "Ġyet": 3660,
      "rypt": 3661,
      "Ġinteger": 3662,
      "Ġtherefore": 3663,
      "Ġhighly": 3664,
      "Ġfollows": 3665,
      "Ġintroduction": 3666,
      "Ġprompts": 3667,
      "Ġdepends": 3668,
      "Ġeffective": 3669,
      "Ġinvolve": 3670,
      "Ġmapping": 3671,
      "Ġbelong": 3672,
      "Ġapproximate": 3673,
      "Ġreflect": 3674,
      "Ġconsumer": 3675,
      "Ġnecessarily": 3676,
      "Ġlabel": 3677,
      "Ġsubset": 3678,
      "Ġassignment": 3679,
      "Ġabstract": 3680,
      "Ġabstraction": 3681,
      "Ġupdate": 3682,
      "Computer": 3683,
      "Ġcaused": 3684,
      "Ġreliability": 3685,
      "Ġactivation": 3686,
      "ĠScience": 3687,
      "Ġmasked": 3688,
      "Ġdenot": 3689,
      "Ġgreater": 3690,
      "Ġmessage": 3691,
      "ditionally": 3692,
      "Ġlegal": 3693,
      "Ġparadigm": 3694,
      "priate": 3695,
      "Ġsubsequent": 3696,
      "Ġautonomous": 3697,
      "computers": 3698,
      "Ġbecomes": 3699,
      "Ġretrieval": 3700,
      "Ġdimension": 3701,
      "Ġepis": 3702,
      "abytes": 3703,
      "Ġcollabor": 3704,
      "ĠChina": 3705,
      "Ġconfigur": 3706,
      "Ġarbitrary": 3707,
      "Ġfully": 3708,
      "Ġvocabulary": 3709,
      "decoder": 3710,
      "Ġconstraints": 3711,
      "Ġhierarch": 3712,
      "ĠNovember": 3713,
      "75": 3714,
      "Ar": 3715,
      "DA": 3716,
      "DF": 3717,
      "FN": 3718,
      "Mind": 3719,
      "Machine": 3720,
      "ah": 3721,
      "core": 3722,
      "ees": 3723,
      "hold": 3724,
      "ky": 3725,
      "layer": 3726,
      "ox": 3727,
      "rical": 3728,
      "sy": 3729,
      "Ġax": 3730,
      "atb": 3731,
      "Ġsite": 3732,
      "Ġsamples": 3733,
      "Ġsplit": 3734,
      "alf": 3735,
      "ishes": 3736,
      "Ġpun": 3737,
      "Ġdivision": 3738,
      "Ġwar": 3739,
      "Ġren": 3740,
      "eli": 3741,
      "Ġthings": 3742,
      "ceed": 3743,
      "oded": 3744,
      "Ġbeyond": 3745,
      "Ġstyle": 3746,
      "Ġexcept": 3747,
      "mented": 3748,
      "plex": 3749,
      "Ġnever": 3750,
      "Ġcomputed": 3751,
      "ĠMat": 3752,
      "Ġrates": 3753,
      "Ġunl": 3754,
      "Ġclusters": 3755,
      "ĠLater": 3756,
      "Ġhap": 3757,
      "Ġadapt": 3758,
      "Ġprocessed": 3759,
      "ĠBo": 3760,
      "ĠBCPL": 3761,
      "âĢ²": 3762,
      "âĢĸ": 3763,
      "ĠWe": 3764,
      "Ġtrack": 3765,
      "ften": 3766,
      "ĠRec": 3767,
      "ession": 3768,
      "Ġreserved": 3769,
      "ibly": 3770,
      "Ġshif": 3771,
      "asting": 3772,
      "Ġmultiplication": 3773,
      "Ġpolyn": 3774,
      "Ġworkload": 3775,
      "Ġplace": 3776,
      "Ġprotect": 3777,
      "Ġdifferenti": 3778,
      "Ġprobabilistic": 3779,
      "Ġincreases": 3780,
      "ĠUnlike": 3781,
      "Ġaccount": 3782,
      "Ġspecification": 3783,
      "Ġactually": 3784,
      "poses": 3785,
      "earning": 3786,
      "Ġchanged": 3787,
      "urnal": 3788,
      "Ġsequential": 3789,
      "Ġexists": 3790,
      "Ġload": 3791,
      "Ġhandling": 3792,
      "...,": 3793,
      "Ġinvolved": 3794,
      "iples": 3795,
      "Ġmining": 3796,
      "Ġadvanced": 3797,
      "Ġproperty": 3798,
      "ĠDBMSs": 3799,
      "ĠSoftware": 3800,
      "Ġlinked": 3801,
      "Ġpassed": 3802,
      "Ġexplor": 3803,
      "Ġprinciples": 3804,
      "Ġconvergence": 3805,
      "ĠArtificial": 3806,
      "Ġextensive": 3807,
      "Ġrecords": 3808,
      "box": 3809,
      "Ġsquare": 3810,
      "Ġcategories": 3811,
      "Ġanalyze": 3812,
      "Ġinfinitesimals": 3813,
      "Ġexplicitly": 3814,
      "mitted": 3815,
      "Ġfeedforward": 3816,
      ")=\\": 3817,
      "ĠIntelligence": 3818,
      "Ġdiagn": 3819,
      "}^{(": 3820,
      "Ġaims": 3821,
      "Ġcorrespond": 3822,
      "Ġbelief": 3823,
      "ĠEuropean": 3824,
      "Ġcycle": 3825,
      "ĠGPUs": 3826,
      "weight": 3827,
      "Ġcircu": 3828,
      "Ġeffort": 3829,
      "Ġsecure": 3830,
      "Ġensure": 3831,
      "Ġpolit": 3832,
      "Ġkeywords": 3833,
      "Ġstoch": 3834,
      "Ġrarely": 3835,
      "Ġvolume": 3836,
      "Ġestablished": 3837,
      "token": 3838,
      "Ġcapacity": 3839,
      "atistical": 3840,
      "Ġdivided": 3841,
      "Ġcapture": 3842,
      "Ġthousands": 3843,
      "NIX": 3844,
      "Ġpolynomial": 3845,
      ");": 3846,
      "83": 3847,
      "87": 3848,
      "?]": 3849,
      "AP": 3850,
      "IM": 3851,
      "IEC": 3852,
      "Many": 3853,
      "SQL": 3854,
      "VM": 3855,
      "auth": 3856,
      "che": 3857,
      "data": 3858,
      "field": 3859,
      "fusion": 3860,
      "hing": 3861,
      "hood": 3862,
      "kt": 3863,
      "mas": 3864,
      "ole": 3865,
      "ober": 3866,
      "vi": 3867,
      "vis": 3868,
      "zz": 3869,
      "Ġ6": 3870,
      "Ġu": 3871,
      "Ġill": 3872,
      "ini": 3873,
      "ret": 3874,
      "rey": 3875,
      "Ġsk": 3876,
      "Ġsay": 3877,
      "orized": 3878,
      "Ġthems": 3879,
      "Ġcr": 3880,
      "aly": 3881,
      "Ġphen": 3882,
      "ancy": 3883,
      "Ġmiddle": 3884,
      "Ġdiction": 3885,
      "Ġbod": 3886,
      "Ġwa": 3887,
      "elves": 3888,
      "Ġthereb": 3889,
      "Ġnative": 3890,
      "Ġcomes": 3891,
      "Ġforward": 3892,
      "igma": 3893,
      "olation": 3894,
      "plies": 3895,
      "iders": 3896,
      "iform": 3897,
      "ĠAct": 3898,
      "Ġexam": 3899,
      "Ġexcl": 3900,
      "Ġvi": 3901,
      "ĠIT": 3902,
      "ĠCar": 3903,
      "Ġord": 3904,
      "ĠSun": 3905,
      "Ġlet": 3906,
      "izer": 3907,
      "iest": 3908,
      "ĠMan": 3909,
      "ĠMay": 3910,
      "ĠMulti": 3911,
      "ĠModern": 3912,
      "Ġright": 3913,
      "Ġ17": 3914,
      "rug": 3915,
      "alloc": 3916,
      "Ġ2010": 3917,
      "Ġ2011": 3918,
      "Ġ2019": 3919,
      "key": 3920,
      "ĠDA": 3921,
      "âĢī": 3922,
      "Ġtransaction": 3923,
      "Ġtranspare": 3924,
      "Ġchatb": 3925,
      "ounter": 3926,
      "elled": 3927,
      "ĠJune": 3928,
      "Ġoperators": 3929,
      "update": 3930,
      "}}_{": 3931,
      "ĠNets": 3932,
      "Ġpartial": 3933,
      "Ġemot": 3934,
      "Ġinstitut": 3935,
      "Ġinstances": 3936,
      "Ġsubstant": 3937,
      "Ġassist": 3938,
      "Ġposition": 3939,
      "Ġproduces": 3940,
      "Ġproducing": 3941,
      "Ġprede": 3942,
      "Ġdefining": 3943,
      "Ġinverse": 3944,
      "Ġphases": 3945,
      "Ġpredictive": 3946,
      "Ġcalculations": 3947,
      "Ġsignals": 3948,
      "Ġcour": 3949,
      "Ġjud": 3950,
      "Ġsmart": 3951,
      "Ġkeep": 3952,
      "ĠComput": 3953,
      "Ġequip": 3954,
      "Ġequival": 3955,
      "Ġpowerful": 3956,
      "Ġlock": 3957,
      "Ġchanging": 3958,
      "Ġlimits": 3959,
      "Ġscaling": 3960,
      "Ġconceptual": 3961,
      "Ġcontexts": 3962,
      "Ġmainly": 3963,
      "Ġderived": 3964,
      "Ġcommunity": 3965,
      "Ġbelow": 3966,
      "Ġfilter": 3967,
      "Ġinitially": 3968,
      "ĠTherefore": 3969,
      "Ġprojects": 3970,
      "ĠDeepMind": 3971,
      "Ġinspired": 3972,
      "related": 3973,
      "ĠControl": 3974,
      "Ġframeworks": 3975,
      "Ġelectric": 3976,
      "Ġeasy": 3977,
      "Ġscripts": 3978,
      "Ġextensions": 3979,
      "Ġcritical": 3980,
      "Ġsummar": 3981,
      "Ġmarketing": 3982,
      "tuning": 3983,
      "Ġsymbolic": 3984,
      "Ġresponses": 3985,
      "Although": 3986,
      "Ġoffers": 3987,
      "Ġcollected": 3988,
      "Ġbounds": 3989,
      "Ġdeliver": 3990,
      "Ġinvestig": 3991,
      "Ġcorresponding": 3992,
      "Ġbenchmarks": 3993,
      "Ġenabling": 3994,
      "Ġconventional": 3995,
      "Ġswitch": 3996,
      "Ġphilosophy": 3997,
      "Multihead": 3998,
      "Ġvendors": 3999,
      "Ġexhib": 4000,
      "pirical": 4001,
      "Ġscenari": 4002,
      "ĠBayesian": 4003,
      "Ġquickly": 4004,
      "Ġstochastic": 4005,
      "Ġthemselves": 4006,
      "Ġphenomen": 4007,
      "Ġthereby": 4008,
      "ĠNetscape": 4009,
      "({\\": 4010,
      "110": 4011,
      "85": 4012,
      "88": 4013,
      "91": 4014,
      "AM": 4015,
      "FFN": 4016,
      "It": 4017,
      "Other": 4018,
      "One": 4019,
      "Wh": 4020,
      "Web": 4021,
      "air": 4022,
      "care": 4023,
      "ev": 4024,
      "ein": 4025,
      "fact": 4026,
      "free": 4027,
      "jection": 4028,
      "language": 4029,
      "mises": 4030,
      "oice": 4031,
      "pes": 4032,
      "page": 4033,
      "tle": 4034,
      "tas": 4035,
      "var": 4036,
      "xic": 4037,
      "ÏĨ": 4038,
      "Ġtempor": 4039,
      "Ġtaken": 4040,
      "inst": 4041,
      "eries": 4042,
      "ature": 4043,
      "atics": 4044,
      "rect": 4045,
      "Ġsizes": 4046,
      "Ġcame": 4047,
      "Ġcoding": 4048,
      "Ġcache": 4049,
      "Ġiniti": 4050,
      "Ġinnov": 4051,
      "icious": 4052,
      "arant": 4053,
      "arallel": 4054,
      "Ġbur": 4055,
      "left": 4056,
      "Ġtoxic": 4057,
      "ctober": 4058,
      "asible": 4059,
      "structure": 4060,
      "cember": 4061,
      "raft": 4062,
      "odd": 4063,
      "ulative": 4064,
      "ember": 4065,
      "Ġstated": 4066,
      "Ġcompress": 4067,
      "agram": 4068,
      "agement": 4069,
      "plor": 4070,
      "Ġgive": 4071,
      "ĠAss": 4072,
      "ĠIs": 4073,
      "ĠCop": 4074,
      "ĠThen": 4075,
      "ĠSec": 4076,
      "Ġlever": 4077,
      "adata": 4078,
      "Ġapply": 4079,
      "ĠInc": 4080,
      "Ġintelligent": 4081,
      "Ġenough": 4082,
      "Ġran": 4083,
      "Ġincom": 4084,
      "ths": 4085,
      "that": 4086,
      "ĠGN": 4087,
      "ĠLat": 4088,
      "ĠLearning": 4089,
      "ĠBell": 4090,
      "ĠBern": 4091,
      "ĠBERT": 4092,
      "Ġprefer": 4093,
      "Ġpreced": 4094,
      "Ġdesired": 4095,
      "Ġdeskt": 4096,
      "Ġperm": 4097,
      "ĠHu": 4098,
      "ĠHyper": 4099,
      "ĠOctober": 4100,
      "irection": 4101,
      "illa": 4102,
      "ĠJan": 4103,
      "}}{\\": 4104,
      "ĠNo": 4105,
      "ĠUNIX": 4106,
      "Ġspan": 4107,
      "Ġdisplay": 4108,
      "Ġqual": 4109,
      "Ġqueries": 4110,
      "Ġdecl": 4111,
      "Ġdecre": 4112,
      "Ġdecoding": 4113,
      "Ġinde": 4114,
      "Ġsetting": 4115,
      "output": 4116,
      "Ġappropriate": 4117,
      "Ġrelatively": 4118,
      "Ġtyping": 4119,
      "Ġsimply": 4120,
      "105": 4121,
      "108": 4122,
      "Ġdesigns": 4123,
      "Ġrepresenting": 4124,
      "123": 4125,
      "162": 4126,
      "comp": 4127,
      "Ġstudied": 4128,
      "Ġextract": 4129,
      "Ġencry": 4130,
      "Ġyou": 4131,
      "Ġpossibly": 4132,
      "Ġcapability": 4133,
      "Ġenter": 4134,
      "Ġhybrid": 4135,
      "rained": 4136,
      "Ġtests": 4137,
      "Ġdynamically": 4138,
      "rence": 4139,
      "rency": 4140,
      "ĠDecember": 4141,
      "Ġbehaviors": 4142,
      "Ġreduction": 4143,
      "softmax": 4144,
      "Ġcombine": 4145,
      "Ġestimate": 4146,
      "Ġargue": 4147,
      "paramet": 4148,
      "Ġ2008": 4149,
      "Ġshown": 4150,
      "Ġdetermine": 4151,
      "Ġcorrectly": 4152,
      "Ġviews": 4153,
      "ERN": 4154,
      "Ġgrowing": 4155,
      "Ġgrowth": 4156,
      "Ġlaws": 4157,
      "Ġfacilities": 4158,
      "Ġguarant": 4159,
      "ĠCPUs": 4160,
      "Ġanswers": 4161,
      "Ġanalyzed": 4162,
      "Ġadoption": 4163,
      "Ġlatter": 4164,
      "Ġfeedback": 4165,
      "Ġreliable": 4166,
      "Ġmaintained": 4167,
      "ĠIntel": 4168,
      "Ġtele": 4169,
      "Ġteam": 4170,
      "Ġmonit": 4171,
      "Ġhealthcare": 4172,
      "Ġdiagonal": 4173,
      "Ġtopics": 4174,
      "Ġeconomic": 4175,
      "Ġhyperlin": 4176,
      "Ġsuggested": 4177,
      "Ġbenchmark": 4178,
      "Ġprocedures": 4179,
      "Ġarticle": 4180,
      "Ġstrategies": 4181,
      "Ġdedicated": 4182,
      "Ġsynchron": 4183,
      "ĠCommon": 4184,
      "Ġsemantics": 4185,
      "ĠMeta": 4186,
      "Ġfairness": 4187,
      "minist": 4188,
      "LLMs": 4189,
      "written": 4190,
      "Ġtowards": 4191,
      "Ġreplaced": 4192,
      "ĠAmerican": 4193,
      "Ġlaun": 4194,
      "Ġmacro": 4195,
      "Ġredund": 4196,
      "ĠSimilarly": 4197,
      "Ġsuitable": 4198,
      "Ġbody": 4199,
      "Ġexclus": 4200,
      "MultiheadAttention": 4201,
      "Ġdesktop": 4202,
      "-\\": 4203,
      "360": 4204,
      "AT": 4205,
      "According": 4206,
      "Go": 4207,
      "RoPE": 4208,
      "See": 4209,
      "UI": 4210,
      "__": 4211,
      "bar": 4212,
      "equ": 4213,
      "over": 4214,
      "oking": 4215,
      "sigma": 4216,
      "uary": 4217,
      "}{": 4218,
      "âī": 4219,
      "Ġaid": 4220,
      "inal": 4221,
      "inform": 4222,
      "orrect": 4223,
      "Ġcle": 4224,
      "Ġcards": 4225,
      "Ġcrypt": 4226,
      "isms": 4227,
      "isely": 4228,
      "Ġpsy": 4229,
      "itative": 4230,
      "itchie": 4231,
      "Ġindu": 4232,
      "Ġdest": 4233,
      "Ġdrug": 4234,
      "arge": 4235,
      "Ġbad": 4236,
      "roid": 4237,
      "Ġfo": 4238,
      "Ġfall": 4239,
      "ented": 4240,
      "Ġreject": 4241,
      "Ġreached": 4242,
      "eloc": 4243,
      "Ġlast": 4244,
      "stream": 4245,
      "Ġprogress": 4246,
      "Ġhalf": 4247,
      "ems": 4248,
      "igen": 4249,
      "Ġstead": 4250,
      "abbage": 4251,
      "idel": 4252,
      "Ġones": 4253,
      "ĠAg": 4254,
      "Ġveloc": 4255,
      "Ġbyte": 4256,
      "ĠCorpor": 4257,
      "mental": 4258,
      "Ġmodified": 4259,
      "ĠSpec": 4260,
      "izable": 4261,
      "Ġnear": 4262,
      "uman": 4263,
      "oregress": 4264,
      "Ġselection": 4265,
      "ĠMc": 4266,
      "ĠMo": 4267,
      "Ġrat": 4268,
      "Ġrights": 4269,
      "Ġunless": 4270,
      "Ġ15": 4271,
      "Ġclose": 4272,
      "ĠGroup": 4273,
      "Ġgeneric": 4274,
      "Ġinteractions": 4275,
      "ĠLabor": 4276,
      "ĠLabs": 4277,
      "Ġadversarial": 4278,
      "ĠBut": 4279,
      "ĠBrit": 4280,
      "âĢ¦": 4281,
      "Ġfunding": 4282,
      "Ġtraffic": 4283,
      "Ġpercept": 4284,
      "Ġchann": 4285,
      "Ġdevelopments": 4286,
      "ĠRF": 4287,
      "Ġcommit": 4288,
      "Ġovercome": 4289,
      "ips": 4290,
      "ipal": 4291,
      "Ġconsiders": 4292,
      "artificial": 4293,
      "Ġsupers": 4294,
      "Ġoptimize": 4295,
      "Ġoptimized": 4296,
      "Ġformed": 4297,
      "Ġmathematicians": 4298,
      "Ġdefinitions": 4299,
      "Ġdiscrimin": 4300,
      "needed": 4301,
      "alculus": 4302,
      "pected": 4303,
      "Ġcolle": 4304,
      "Ġcoord": 4305,
      "Ġextre": 4306,
      "ganization": 4307,
      "ĠAlpha": 4308,
      "ĠAlgorithms": 4309,
      "Ġround": 4310,
      "Ġexperts": 4311,
      "Ġfoundation": 4312,
      "Ġcenter": 4313,
      "Ġactive": 4314,
      "Ġlocation": 4315,
      "Ġrace": 4316,
      "Ġengineers": 4317,
      "Ġscalability": 4318,
      "Ġlearns": 4319,
      "Ġprompted": 4320,
      "Ġbehaviour": 4321,
      "Ġreducing": 4322,
      "Ġinternational": 4323,
      "Ġdependent": 4324,
      "Ġestimates": 4325,
      "Ġtranslate": 4326,
      "Ġenvironmental": 4327,
      "Ġbuilding": 4328,
      "Ġstarting": 4329,
      "Ġindependently": 4330,
      "Ġconven": 4331,
      "class": 4332,
      "processing": 4333,
      "sequence": 4334,
      "Ġsymmet": 4335,
      "Ġdescribing": 4336,
      "Ġcountries": 4337,
      "Ġsentences": 4338,
      "Ġvideos": 4339,
      "Ġprincipal": 4340,
      "training": 4341,
      "Ġdeployed": 4342,
      "ĠEngine": 4343,
      "Ġpresented": 4344,
      "ĠInstead": 4345,
      "Ġdiscover": 4346,
      "Ġutility": 4347,
      "Ġindicate": 4348,
      "Ġsymbols": 4349,
      "Ġprimarily": 4350,
      "Ġemerged": 4351,
      "fitting": 4352,
      "Ġsensitive": 4353,
      "Ġverification": 4354,
      "Ġprecisely": 4355,
      "Ġremains": 4356,
      "Ġearliest": 4357,
      "Ġexactly": 4358,
      "ographic": 4359,
      "Ġarticles": 4360,
      "Ġelementary": 4361,
      "Ġdedu": 4362,
      "Ġpurposes": 4363,
      "Ġclosely": 4364,
      "Ġmotiv": 4365,
      "Ġaccurate": 4366,
      "Ġconcurrent": 4367,
      "Ġlinguistics": 4368,
      "Ġdrive": 4369,
      "ĠDiffusion": 4370,
      "ypically": 4371,
      "ĠGeneral": 4372,
      "Ġmultimodal": 4373,
      "Ġrigor": 4374,
      "Ġinterconnect": 4375,
      "Ġadjust": 4376,
      "Ġaxi": 4377,
      "Ġpredecess": 4378,
      "varphi": 4379,
      "ĠJanuary": 4380,
      "Ġvelocity": 4381,
      "ĠCorporation": 4382,
      "%,": 4383,
      "97": 4384,
      "AD": 4385,
      "By": 4386,
      "DAS": 4387,
      "HF": 4388,
      "LN": 4389,
      "MS": 4390,
      "Modern": 4391,
      "Ne": 4392,
      "OL": 4393,
      "OM": 4394,
      "OT": 4395,
      "QA": 4396,
      "],": 4397,
      "bl": 4398,
      "billion": 4399,
      "bmatrix": 4400,
      "cking": 4401,
      "den": 4402,
      "ele": 4403,
      "fe": 4404,
      "lers": 4405,
      "pus": 4406,
      "sol": 4407,
      "spe": 4408,
      "sive": 4409,
      "sum": 4410,
      "site": 4411,
      "system": 4412,
      "uble": 4413,
      "vdots": 4414,
      "Ġ/": 4415,
      "Ġir": 4416,
      "Ġ...,": 4417,
      "Ġtag": 4418,
      "Ġast": 4419,
      "Ġaway": 4420,
      "ert": 4421,
      "hetic": 4422,
      "Ġsus": 4423,
      "Ġsect": 4424,
      "Ġsav": 4425,
      "Ġsites": 4426,
      "Ġcult": 4427,
      "ione": 4428,
      "ionally": 4429,
      "Ġput": 4430,
      "Ġpip": 4431,
      "itely": 4432,
      "Ġmut": 4433,
      "Ġmix": 4434,
      "Ġmove": 4435,
      "Ġmagn": 4436,
      "Ġdual": 4437,
      "Ġbal": 4438,
      "Ġbug": 4439,
      "Ġbase": 4440,
      "Ġbinary": 4441,
      "Ġfav": 4442,
      "Ġwww": 4443,
      "Ġreve": 4444,
      "Ġrevers": 4445,
      "Ġlif": 4446,
      "step": 4447,
      "raw": 4448,
      "ilot": 4449,
      "urity": 4450,
      "emini": 4451,
      "Ġstren": 4452,
      "Ġcompile": 4453,
      "ides": 4454,
      "ott": 4455,
      "Ġgar": 4456,
      "Ġdeb": 4457,
      "Ġdeals": 4458,
      "Ġalign": 4459,
      "ĠAlex": 4460,
      "Ġexch": 4461,
      "Ġvan": 4462,
      "ĠCodd": 4463,
      "ĠCERN": 4464,
      "istribut": 4465,
      "riz": 4466,
      "iving": 4467,
      "Ġsear": 4468,
      "ĠInformation": 4469,
      "Ġuniform": 4470,
      "Ġcontin": 4471,
      "ĠGu": 4472,
      "ĠGemini": 4473,
      "Ġgenerates": 4474,
      "ĠLaw": 4475,
      "ĠFurthermore": 4476,
      "expected": 4477,
      "These": 4478,
      "Ġsche": 4479,
      "ups": 4480,
      "Ġmembers": 4481,
      "Ġvariance": 4482,
      "Ġdecad": 4483,
      "Ġrecently": 4484,
      "Ġrequiring": 4485,
      "Ġperforms": 4486,
      "Ġrelative": 4487,
      "Ġdoing": 4488,
      "Ġoptical": 4489,
      "101": 4490,
      "103": 4491,
      "104": 4492,
      "106": 4493,
      "107": 4494,
      "109": 4495,
      "auss": 4496,
      "114": 4497,
      "ĠStan": 4498,
      "Ġdiscount": 4499,
      "Ġagree": 4500,
      "Ġsupporting": 4501,
      "Ġprobabilities": 4502,
      "Ġphot": 4503,
      "Ġexpensive": 4504,
      "inese": 4505,
      "Ġpredicting": 4506,
      "ique": 4507,
      "Ġbiology": 4508,
      "Ġpossibility": 4509,
      "Ġgiving": 4510,
      "Ġfoundations": 4511,
      "Ġidentifiers": 4512,
      "defined": 4513,
      "Ġequation": 4514,
      "ĠProject": 4515,
      "ĠChinese": 4516,
      "Ġ1995": 4517,
      "Ġrad": 4518,
      "Ġbuffer": 4519,
      "ependent": 4520,
      "Ġsynthes": 4521,
      "Ġreduced": 4522,
      "Ġprivile": 4523,
      "Ġmechanics": 4524,
      "Ġmeasured": 4525,
      "Ġinvolving": 4526,
      "Ġ2009": 4527,
      "Ġpopularity": 4528,
      "Ġachieving": 4529,
      "ĠAdditionally": 4530,
      "processors": 4531,
      "ĠExplor": 4532,
      "Ġfocuses": 4533,
      "Ġscientist": 4534,
      "Ġscientists": 4535,
      "Ġquantities": 4536,
      "olutional": 4537,
      "relational": 4538,
      "Ġneuron": 4539,
      "Ġfacilit": 4540,
      "Ġassigned": 4541,
      "Ġcustomer": 4542,
      "Ġreceives": 4543,
      "Ġreceived": 4544,
      "Ġcommunicate": 4545,
      "Ġsquaring": 4546,
      "Ġsquares": 4547,
      "Ġheads": 4548,
      "Ġcategory": 4549,
      "Ġrewards": 4550,
      "Ġeduc": 4551,
      "ĠAPIs": 4552,
      ")={\\": 4553,
      "Ġmaintaining": 4554,
      "IST": 4555,
      "Ġmoving": 4556,
      "Ġinfluence": 4557,
      "Ġreplace": 4558,
      "Ġmaximize": 4559,
      "Ġobservation": 4560,
      "Ġmessages": 4561,
      "Ġobtained": 4562,
      "Ġrestricted": 4563,
      "Ġprocedure": 4564,
      "Ġenabled": 4565,
      "Ġchecks": 4566,
      "Ġdeclarations": 4567,
      "âĭ®": 4568,
      "Ġtrees": 4569,
      "Ġadvantages": 4570,
      "Ġbeginning": 4571,
      "Cloud": 4572,
      "Ġforec": 4573,
      "party": 4574,
      "ĠâĢ¢": 4575,
      "Ġcopyrighted": 4576,
      "Ġhundreds": 4577,
      "Ġharmful": 4578,
      "Artificial": 4579,
      "Ġpolitical": 4580,
      "Ġdictionary": 4581,
      "ĠCarlo": 4582,
      "Ġequivalent": 4583,
      "Ġscenarios": 4584,
      "While": 4585,
      "Ġstreng": 4586,
      "ĠExplorer": 4587,
      "&\\": 4588,
      "92": 4589,
      "93": 4590,
      "94": 4591,
      "BC": 4592,
      "DE": 4593,
      "During": 4594,
      "HTML": 4595,
      "JIT": 4596,
      "ON": 4597,
      "PaaS": 4598,
      "Qu": 4599,
      "RE": 4600,
      "SA": 4601,
      "Un": 4602,
      "YL": 4603,
      "bi": 4604,
      "bre": 4605,
      "cer": 4606,
      "cient": 4607,
      "called": 4608,
      "des": 4609,
      "dom": 4610,
      "go": 4611,
      "gment": 4612,
      "pers": 4613,
      "run": 4614,
      "rant": 4615,
      "uzz": 4616,
      "ÃĹ": 4617,
      "ÎĶ": 4618,
      "Ġ9": 4619,
      "Ġ<": 4620,
      "Ġâ": 4621,
      "Ġrough": 4622,
      "Ġâģł": 4623,
      "Ġtun": 4624,
      "inft": 4625,
      "ath": 4626,
      "rehen": 4627,
      "Ġsend": 4628,
      "orth": 4629,
      "Ġcounter": 4630,
      "Ġold": 4631,
      "Ġpione": 4632,
      "itude": 4633,
      "Ġmar": 4634,
      "Ġmig": 4635,
      "Ġmist": 4636,
      "Ġdens": 4637,
      "Ġdays": 4638,
      "Ġbases": 4639,
      "Ġbits": 4640,
      "Ġwat": 4641,
      "Ġwindow": 4642,
      "omic": 4643,
      "Ġrect": 4644,
      "Ġeigen": 4645,
      "Ġnorm": 4646,
      "unic": 4647,
      "ulatory": 4648,
      "ild": 4649,
      "Ġstd": 4650,
      "Ġcomprehen": 4651,
      "Ġgather": 4652,
      "Ġgrid": 4653,
      "Ġdeg": 4654,
      "Ġdevi": 4655,
      "ĠAfter": 4656,
      "rial": 4657,
      "ĠSeveral": 4658,
      "Ġneuro": 4659,
      "Ġmodelling": 4660,
      "200": 4661,
      "ĠMach": 4662,
      "ĠMarch": 4663,
      "ĠMachine": 4664,
      "Ġrise": 4665,
      "Ġ100": 4666,
      "Ġincorrect": 4667,
      "ferent": 4668,
      "ĠPre": 4669,
      "ĠPet": 4670,
      "allow": 4671,
      "Ġnotion": 4672,
      "ĠGeo": 4673,
      "ĠGauss": 4674,
      "Ġgenerator": 4675,
      "ĠLinear": 4676,
      "ĠDo": 4677,
      "ĠBer": 4678,
      "ender": 4679,
      "ĠWork": 4680,
      "Ġdesigning": 4681,
      "arious": 4682,
      "Ġsciences": 4683,
      "Ġperception": 4684,
      "Ġtransition": 4685,
      "Ġtransmission": 4686,
      "ĠEm": 4687,
      "ĠEle": 4688,
      "Ġ1950": 4689,
      "iref": 4690,
      "ills": 4691,
      "illance": 4692,
      "ĠThat": 4693,
      "ĠRitchie": 4694,
      "Ġotherwise": 4695,
      "Ġserious": 4696,
      "ffrey": 4697,
      "ĠNetwork": 4698,
      "inton": 4699,
      "Ġoutcome": 4700,
      "Ġoutperform": 4701,
      "hentic": 4702,
      "Ġrecon": 4703,
      "Ġevidence": 4704,
      "Ġoverall": 4705,
      "Ġoverfitting": 4706,
      "Ġemail": 4707,
      "Ġempirical": 4708,
      "bert": 4709,
      "Ġdifferences": 4710,
      "Ġheap": 4711,
      "Ġdouble": 4712,
      "Ġstatistic": 4713,
      "Ġauto": 4714,
      "Ġautoregress": 4715,
      "Ġauthentic": 4716,
      "Ġimplementing": 4717,
      "erman": 4718,
      "ĠIts": 4719,
      "Ġproduction": 4720,
      "111": 4721,
      "112": 4722,
      "113": 4723,
      "Ġlinearly": 4724,
      "ĠStable": 4725,
      "ything": 4726,
      "Ġphone": 4727,
      "Ġcorpus": 4728,
      "165": 4729,
      "Ġpredicted": 4730,
      "pective": 4731,
      "++,": 4732,
      "Ġextent": 4733,
      "Ġencoded": 4734,
      "Ġspecifications": 4735,
      "Ġrole": 4736,
      "Ġreleases": 4737,
      "Ġsmo": 4738,
      "Ġconstruction": 4739,
      "ĠProgramming": 4740,
      "raining": 4741,
      "Ġaddressing": 4742,
      "Ġraw": 4743,
      "Ġstoring": 4744,
      "Ġstrings": 4745,
      "Ġanalytical": 4746,
      "âĪŀ": 4747,
      "Ġpublication": 4748,
      "Ġinterpreters": 4749,
      "Ġsynthetic": 4750,
      "Ġmechanical": 4751,
      "Ġestimation": 4752,
      "standing": 4753,
      "Ġsupercomputers": 4754,
      "Ġmeasurement": 4755,
      "Ġminor": 4756,
      "Ġminimal": 4757,
      "Ġsurf": 4758,
      "Ġocc": 4759,
      "Ġdifficulty": 4760,
      "Ġconfidence": 4761,
      "ĠClass": 4762,
      "Ġoffered": 4763,
      "Ġoffering": 4764,
      "reli": 4765,
      "Ġsentence": 4766,
      "Ġelectrical": 4767,
      "Ġeasier": 4768,
      "Ġsegments": 4769,
      "ĠSystems": 4770,
      "Ġreceiving": 4771,
      "Ġconnections": 4772,
      "ĠTransfer": 4773,
      "Ġinterrupts": 4774,
      "Ġindividuals": 4775,
      "Ġmisinformation": 4776,
      "Ġemployed": 4777,
      "Ġsymbol": 4778,
      "print": 4779,
      "prise": 4780,
      "Ġlatency": 4781,
      "Ġactivities": 4782,
      "Ġhosts": 4783,
      "Ġmaximum": 4784,
      "Ġbreak": 4785,
      "Ġprecise": 4786,
      "Ġobservations": 4787,
      "Ġsegmentation": 4788,
      "Ġtendency": 4789,
      "Ġrouting": 4790,
      "Ġ&\\": 4791,
      "Ġchoose": 4792,
      "Ġjobs": 4793,
      "Ġpreser": 4794,
      "Ġmalicious": 4795,
      "Ġefforts": 4796,
      "Ġchecking": 4797,
      "Ġsemantic": 4798,
      "ropy": 4799,
      "Ġaccurately": 4800,
      "RPA": 4801,
      "Ġofficial": 4802,
      "ĠImage": 4803,
      "Ġuniversities": 4804,
      "ĠPlatform": 4805,
      "Ġbenefit": 4806,
      "Ġcompletion": 4807,
      "Ġcolumns": 4808,
      "Ġgenetic": 4809,
      "ĠCODAS": 4810,
      "Ġcorrelation": 4811,
      "ĠOrganization": 4812,
      "Ġuncertainty": 4813,
      "Ġcriticism": 4814,
      "Ġevolved": 4815,
      "Ġconfiguration": 4816,
      "elihood": 4817,
      "plexity": 4818,
      "ĠMathemat": 4819,
      "Ġexploration": 4820,
      "authorized": 4821,
      "Ġsmartph": 4822,
      "tasks": 4823,
      "Ġinnovation": 4824,
      "ĠCopilot": 4825,
      "ĠLatin": 4826,
      "Ġhyperlinks": 4827,
      "Ġpsych": 4828,
      "ĠLaboratory": 4829,
      "ĠBritish": 4830,
      "Ġdiscounted": 4831,
      "infty": 4832,
      "ĠCODASYL": 4833,
      "Because": 4834,
      "CL": 4835,
      "DBMS": 4836,
      "Database": 4837,
      "LG": 4838,
      "Lee": 4839,
      "RI": 4840,
      "XX": 4841,
      "ault": 4842,
      "cious": 4843,
      "driven": 4844,
      "effect": 4845,
      "ium": 4846,
      "ken": 4847,
      "la": 4848,
      "log": 4849,
      "lder": 4850,
      "light": 4851,
      "present": 4852,
      "rated": 4853,
      "sor": 4854,
      "small": 4855,
      "ters": 4856,
      "uation": 4857,
      "ufact": 4858,
      "vent": 4859,
      "work": 4860,
      "}{\\": 4861,
      "Ġ-": 4862,
      "Ġ50": 4863,
      "Ġtit": 4864,
      "Ġaug": 4865,
      "inations": 4866,
      "inator": 4867,
      "eral": 4868,
      "Ġsix": 4869,
      "ene": 4870,
      "Ġcard": 4871,
      "Ġcell": 4872,
      "Ġcast": 4873,
      "ison": 4874,
      "Ġpay": 4875,
      "Ġpie": 4876,
      "Ġmental": 4877,
      "Ġfash": 4878,
      "Ġwin": 4879,
      "Ġwent": 4880,
      "Ġwave": 4881,
      "Ġtoday": 4882,
      "ask": 4883,
      "Ġrepe": 4884,
      "Ġlight": 4885,
      "Ġlists": 4886,
      "state": 4887,
      "strap": 4888,
      "Ġpropos": 4889,
      "Ġproof": 4890,
      "ett": 4891,
      "etary": 4892,
      "iment": 4893,
      "imate": 4894,
      "ray": 4895,
      "oders": 4896,
      "ula": 4897,
      "Ġstage": 4898,
      "Ġcompr": 4899,
      "ollar": 4900,
      "Ġconditional": 4901,
      "Ġconduct": 4902,
      "idual": 4903,
      "Ġalter": 4904,
      "ĠANN": 4905,
      "ford": 4906,
      "irst": 4907,
      "izers": 4908,
      "former": 4909,
      "anging": 4910,
      "Ġapp": 4911,
      "Ġseq": 4912,
      "Ġimplications": 4913,
      "ĠMich": 4914,
      "Ġuncon": 4915,
      "ferential": 4916,
      "Ġnoted": 4917,
      "Ġnotably": 4918,
      "ĠGenerative": 4919,
      "keley": 4920,
      "ĠLibr": 4921,
      "Ġadminist": 4922,
      "ĠDuring": 4923,
      "Ġmanually": 4924,
      "Ġmanner": 4925,
      "Ġmanufact": 4926,
      "ĠBC": 4927,
      "ĠBoth": 4928,
      "ĠBabbage": 4929,
      "ĠFiref": 4930,
      "Ġdespite": 4931,
      "Ġsoft": 4932,
      "aching": 4933,
      "ĠHinton": 4934,
      "ĠEarly": 4935,
      "ĠEven": 4936,
      "elling": 4937,
      "avid": 4938,
      "Ġserve": 4939,
      "ffice": 4940,
      "Ġproved": 4941,
      "ĠUsing": 4942,
      "order": 4943,
      "Ġoutl": 4944,
      "Ġoutside": 4945,
      "Ġspread": 4946,
      "Ġcompiling": 4947,
      "Ġdise": 4948,
      "apers": 4949,
      "Ġquot": 4950,
      "Ġshape": 4951,
      "Ġfeasible": 4952,
      "Ġevolution": 4953,
      "Ġoverflow": 4954,
      "Ġinstall": 4955,
      "Ġconscious": 4956,
      "Ġheur": 4957,
      "Ġassess": 4958,
      "102": 4959,
      "ausal": 4960,
      "Ġaccesses": 4961,
      "ubling": 4962,
      "ublic": 4963,
      "prec": 4964,
      "Ġoptimizing": 4965,
      "ĠStatistics": 4966,
      "Ġrepresentative": 4967,
      "ney": 4968,
      "122": 4969,
      "129": 4970,
      "Ġphase": 4971,
      "Ġexpon": 4972,
      "163": 4973,
      "Ġcalculate": 4974,
      "Ġregion": 4975,
      "Ġparallelization": 4976,
      "Ġbiased": 4977,
      "ĠAlan": 4978,
      "Ġ\\\\": 4979,
      "Ġalgorithmic": 4980,
      "Ġ30": 4981,
      "note": 4982,
      "poss": 4983,
      "Ġentities": 4984,
      "ĠProgram": 4985,
      "Ġmanaging": 4986,
      "Ġnoise": 4987,
      "Ġ1991": 4988,
      "Ġ1998": 4989,
      "Ġcontrols": 4990,
      "Ġnonlinear": 4991,
      "Ġtokenizer": 4992,
      "ronic": 4993,
      "ronom": 4994,
      "Ġcurve": 4995,
      "Ġprompting": 4996,
      "Ġlooking": 4997,
      "Ġsignificance": 4998,
      "Ġapplies": 4999,
      "Ġsyntact": 5000,
      "Ġdependencies": 5001,
      "ours": 5002,
      "Ġdefault": 5003,
      "heads": 5004,
      "Ġremo": 5005,
      "Ġproductivity": 5006,
      "Ġboom": 5007,
      "Ġshows": 5008,
      "mathcal": 5009,
      "issions": 5010,
      "ĠAdv": 5011,
      "Ġdetermined": 5012,
      "Ġ==": 5013,
      "Ġlinks": 5014,
      "Ġviewed": 5015,
      "Ġconsumers": 5016,
      "what": 5017,
      "Ġcheck": 5018,
      "Ġcounting": 5019,
      "Ġevaluate": 5020,
      "Ġevaluated": 5021,
      "Ġmanipulating": 5022,
      "Ġfault": 5023,
      "Ġrevision": 5024,
      "Ġreview": 5025,
      "ĠTransl": 5026,
      "Ġdescriptive": 5027,
      "Ġheader": 5028,
      "Ġcategor": 5029,
      "Ġmedic": 5030,
      "Ġupdated": 5031,
      "Ġindicates": 5032,
      "Ġcauses": 5033,
      "Ġresponsible": 5034,
      "Ġresponsibility": 5035,
      "Ġhosted": 5036,
      "Ġassumed": 5037,
      "Ġinfluenced": 5038,
      "encoder": 5039,
      "Ġethics": 5040,
      "ANET": 5041,
      "Ġprototypes": 5042,
      "Ġaffected": 5043,
      "Ġdelivered": 5044,
      "Ġbroader": 5045,
      "Ġlikelihood": 5046,
      "Ġestablish": 5047,
      "Ġessentially": 5048,
      "Ġcarry": 5049,
      "Ġdistinction": 5050,
      "Ġstrategy": 5051,
      "Ġpackets": 5052,
      "Ġparadigms": 5053,
      "Ġcomposed": 5054,
      "Ġclaims": 5055,
      "ĠMethod": 5056,
      "Ġjournal": 5057,
      "RPANET": 5058,
      "Ġconcurrency": 5059,
      "Ġiteration": 5060,
      "Ġscalars": 5061,
      "Ġadvantage": 5062,
      "Ġacquired": 5063,
      "Ġrows": 5064,
      "Ġsociety": 5065,
      "Ġfraud": 5066,
      "Ġcookies": 5067,
      "Ġimplicitly": 5068,
      "Ġtraveled": 5069,
      "Ġrecommendations": 5070,
      "Ġexpertise": 5071,
      "Ġagreement": 5072,
      "Ġworkloads": 5073,
      "Ġcircuits": 5074,
      "masked": 5075,
      "Ġillust": 5076,
      "ĠDALL": 5077,
      "ĠComputing": 5078,
      "structured": 5079,
      "Ġdeclared": 5080,
      "Ġguarantees": 5081,
      "Ġsteady": 5082,
      "Ġcoordin": 5083,
      "Ġrigorous": 5084,
      "Ġpipel": 5085,
      "Ġbugs": 5086,
      "Ġgarbage": 5087,
      "Ġroughly": 5088,
      "Ġdensity": 5089,
      "ĠGeoffrey": 5090,
      "ĠBerkeley": 5091,
      "Ġreconst": 5092,
      "Ġsmooth": 5093,
      "\"),": 5094,
      "'t": 5095,
      ".\"": 5096,
      "96": 5097,
      "Ad": 5098,
      "Ass": 5099,
      "Data": 5100,
      "EO": 5101,
      "However": 5102,
      "LU": 5103,
      "Layer": 5104,
      "Norm": 5105,
      "OP": 5106,
      "PC": 5107,
      "PG": 5108,
      "PP": 5109,
      "Per": 5110,
      "Re": 5111,
      "Several": 5112,
      "TL": 5113,
      "XW": 5114,
      "\\,}": 5115,
      "])": 5116,
      "aks": 5117,
      "apted": 5118,
      "aude": 5119,
      "bability": 5120,
      "causal": 5121,
      "eor": 5122,
      "from": 5123,
      "fakes": 5124,
      "gate": 5125,
      "gets": 5126,
      "ior": 5127,
      "iar": 5128,
      "lay": 5129,
      "ncy": 5130,
      "pens": 5131,
      "qr": 5132,
      "sqr": 5133,
      "uel": 5134,
      "wid": 5135,
      "wall": 5136,
      "})": 5137,
      "Ġ*": 5138,
      "Ġ7": 5139,
      "Ġ70": 5140,
      "Ġ...": 5141,
      "ĨĴ": 5142,
      "Ġtw": 5143,
      "Ġtail": 5144,
      "ats": 5145,
      "atically": 5146,
      "atibility": 5147,
      "rew": 5148,
      "reen": 5149,
      "Ġske": 5150,
      "Ġsort": 5151,
      "Ġside": 5152,
      "Ġslo": 5153,
      "Ġsoph": 5154,
      "enn": 5155,
      "ench": 5156,
      "enge": 5157,
      "orrow": 5158,
      "Ġtheories": 5159,
      "alities": 5160,
      "ister": 5161,
      "Ġinser": 5162,
      "Ġannot": 5163,
      "Ġancient": 5164,
      "Ġdot": 5165,
      "arrow": 5166,
      "Ġbillions": 5167,
      "Ġflex": 5168,
      "Ġtook": 5169,
      "entions": 5170,
      "user": 5171,
      "using": 5172,
      "Ġrest": 5173,
      "Ġretain": 5174,
      "Ġever": 5175,
      "Ġthres": 5176,
      "Ġthreat": 5177,
      "chart": 5178,
      "Ġpropag": 5179,
      "Ġisomorphism": 5180,
      "image": 5181,
      "rad": 5182,
      "ractions": 5183,
      "Ġcomment": 5184,
      "ĠTypically": 5185,
      "urrent": 5186,
      "Ġusual": 5187,
      "Ġcompatibility": 5188,
      "Ġconform": 5189,
      "Ġcondition": 5190,
      "Ġgave": 5191,
      "ĠAC": 5192,
      "ĠARPANET": 5193,
      "amb": 5194,
      "amma": 5195,
      "Ġdatagram": 5196,
      "Ġexception": 5197,
      "ĠCNN": 5198,
      "ĠCEO": 5199,
      "quality": 5200,
      "pth": 5201,
      "ptember": 5202,
      "Ġitems": 5203,
      "Ġmodify": 5204,
      "ĠSpe": 5205,
      "ĠSub": 5206,
      "ĠSaaS": 5207,
      "Ġwhite": 5208,
      "Ġlex": 5209,
      "Ġneither": 5210,
      "formers": 5211,
      "andbox": 5212,
      "Ġsystematic": 5213,
      "Ġimplies": 5214,
      "Ġimposs": 5215,
      "Ġintr": 5216,
      "Ġenorm": 5217,
      "open": 5218,
      "ĠMIT": 5219,
      "ĠModel": 5220,
      "Ġunexpected": 5221,
      "Ġunauthorized": 5222,
      "acing": 5223,
      "osis": 5224,
      "osely": 5225,
      "ĠPO": 5226,
      "ĠPa": 5227,
      "ĠPy": 5228,
      "ĠPear": 5229,
      "ĠPDP": 5230,
      "alluc": 5231,
      "ĠGiven": 5232,
      "ebru": 5233,
      "ĠLL": 5234,
      "Ġadvert": 5235,
      "ĠDan": 5236,
      "Ġmanif": 5237,
      "ĠFin": 5238,
      "ĠFrom": 5239,
      "ĠFace": 5240,
      "Ġpreprocessor": 5241,
      "Ġprefix": 5242,
      "Ġtrust": 5243,
      "Ġsole": 5244,
      "Ġsound": 5245,
      "Ġspeak": 5246,
      "Ġchance": 5247,
      "architect": 5248,
      "aves": 5249,
      "disc": 5250,
      "ĠThom": 5251,
      "ĠJu": 5252,
      "ĠJose": 5253,
      "ĠJames": 5254,
      "ĠRoss": 5255,
      "ĠURL": 5256,
      "ĠUDP": 5257,
      "Ġvariation": 5258,
      "intelligence": 5259,
      "Ġmultil": 5260,
      "Ġmethodology": 5261,
      "Ġpartition": 5262,
      "Ġpartially": 5263,
      "Ġcommand": 5264,
      "Ġspeculative": 5265,
      "Ġabs": 5266,
      "Ġemissions": 5267,
      "vices": 5268,
      "ritical": 5269,
      "Ġanalog": 5270,
      "ularly": 5271,
      "Ġoptions": 5272,
      "Ġsubfield": 5273,
      "Ġstandardization": 5274,
      "Ġstandardized": 5275,
      "Ġimplements": 5276,
      "ĠForm": 5277,
      "Ġplant": 5278,
      "Ġplain": 5279,
      "Ġclouds": 5280,
      "Ġclassifier": 5281,
      "115": 5282,
      "prefix": 5283,
      "premises": 5284,
      "Ġmostly": 5285,
      "Ġoptimisation": 5286,
      "ĠStatistical": 5287,
      "128": 5288,
      "Ġaggre": 5289,
      "Ġexpand": 5290,
      "Ġcorru": 5291,
      "177": 5292,
      "Ġpredicts": 5293,
      "Ġcalculation": 5294,
      "computer": 5295,
      "compass": 5296,
      "Ġanalyses": 5297,
      "Ġrequirement": 5298,
      "Ġregulatory": 5299,
      "Ġweak": 5300,
      "Ġpointed": 5301,
      "134": 5302,
      "135": 5303,
      "Ġcapital": 5304,
      "Ġparticip": 5305,
      "Ġimproving": 5306,
      "Ġimproves": 5307,
      "Ġidentification": 5308,
      "values": 5309,
      "ĠComp": 5310,
      "ĠCommission": 5311,
      "ĠCompiler": 5312,
      "Ġentry": 5313,
      "Ġpatent": 5314,
      "Ġallocations": 5315,
      "Ġ1993": 5316,
      "Ġraised": 5317,
      "ynamic": 5318,
      "Ġavailability": 5319,
      "Ġrecognize": 5320,
      "Ġscalable": 5321,
      "Ġstrict": 5322,
      "Ġconsidering": 5323,
      "Ġexistential": 5324,
      "Ġendomorphism": 5325,
      "âĪĪ": 5326,
      "âĪĳ": 5327,
      "Ġfacts": 5328,
      "Ġreasons": 5329,
      "Ġ1985": 5330,
      "Ġ1989": 5331,
      "Ġreduces": 5332,
      "Ġinternally": 5333,
      "Ġestimators": 5334,
      "Ġdefend": 5335,
      "itially": 5336,
      "Ġcharacteristic": 5337,
      "Ġcontinues": 5338,
      "Ġphysics": 5339,
      "Ġphysically": 5340,
      "Ġremote": 5341,
      "Ġ1973": 5342,
      "Ġboot": 5343,
      "Ġmarked": 5344,
      "Ġconvolutional": 5345,
      "Ġrequested": 5346,
      "Ġdelay": 5347,
      "Ġhelps": 5348,
      "Ġreports": 5349,
      "Ġcorrectness": 5350,
      "ĠClaude": 5351,
      "sequently": 5352,
      "SIC": 5353,
      "Ġinfinite": 5354,
      "Ġtargeted": 5355,
      "Ġpassword": 5356,
      "Ġquantization": 5357,
      "Ġquantitative": 5358,
      "ĠDeepSee": 5359,
      "Ġinsights": 5360,
      "tilde": 5361,
      "Ġlabels": 5362,
      "Ġlabelled": 5363,
      "Ġappearing": 5364,
      "Ġgrows": 5365,
      "Ġoccurred": 5366,
      "Ġmanipulate": 5367,
      "Ġembeddings": 5368,
      "Ġassigns": 5369,
      "Ġbroken": 5370,
      "Ġreceive": 5371,
      "Ġgraphical": 5372,
      "Ġpresentation": 5373,
      "Ġabstractions": 5374,
      "Ġgovernments": 5375,
      "Ġconsistency": 5376,
      "Ġupdates": 5377,
      "Ġrobots": 5378,
      "Ġanalyzing": 5379,
      "Ġedges": 5380,
      "Ġlatent": 5381,
      "Ġhistor": 5382,
      "Ġnumerous": 5383,
      "Ġmonths": 5384,
      "Ġeconomics": 5385,
      "Ġtends": 5386,
      "Ġgrew": 5387,
      "Ġalongside": 5388,
      "ography": 5389,
      "Ġenhance": 5390,
      "Ġentirely": 5391,
      "Ġsuggests": 5392,
      "Statistics": 5393,
      "ymb": 5394,
      "Ġsurveillance": 5395,
      "Ġmeaningful": 5396,
      "Ġrestrictions": 5397,
      "ĠStandards": 5398,
      "Ġminimize": 5399,
      "gorithm": 5400,
      "Ġsituation": 5401,
      "Ġmassively": 5402,
      "Ġinherit": 5403,
      "Ġgained": 5404,
      "Ġvarying": 5405,
      "Ġsubsequently": 5406,
      "Ġsuccessfully": 5407,
      "Ġmotion": 5408,
      "Ġsimpler": 5409,
      "Ġrobotics": 5410,
      "shot": 5411,
      "Ġtreated": 5412,
      "Ġtreatment": 5413,
      "ĠSeptember": 5414,
      "Ġdistinguish": 5415,
      "Ġgetting": 5416,
      "Ġcompletely": 5417,
      "Ġincorporate": 5418,
      "Ġcredit": 5419,
      "Ġcareful": 5420,
      "ĠDespite": 5421,
      "Ġcookie": 5422,
      "ĠAndroid": 5423,
      "Ġintervals": 5424,
      "Ġsatisfy": 5425,
      "âŁ¨": 5426,
      "âŁ©": 5427,
      "istorically": 5428,
      "Ġattributes": 5429,
      "Ġfloating": 5430,
      "ĠTechnology": 5431,
      "Ġepisode": 5432,
      "Ġrender": 5433,
      "Ġdifferentiation": 5434,
      "visor": 5435,
      "ĠManagement": 5436,
      "Ġchatbots": 5437,
      "Ġinstitutions": 5438,
      "Ġpermut": 5439,
      "ĠHypertext": 5440,
      "Ġindefin": 5441,
      "parameter": 5442,
      "Ġlaunched": 5443,
      "Ġredundancy": 5444,
      "ĠSpecifically": 5445,
      "Ġaxioms": 5446,
      "Ġreveal": 5447,
      "Ġreverse": 5448,
      "istributed": 5449,
      "Ġsearches": 5450,
      "Ġprivileges": 5451,
      "uzzy": 5452,
      "Ġdegree": 5453,
      "ĠGaussian": 5454,
      "reliable": 5455,
      "Ġfashion": 5456,
      "Ġexponential": 5457,
      "sqrt": 5458,
      "Ġslope": 5459,
      "Ġsophistic": 5460,
      "Ġthreshold": 5461,
      "Ġimpossible": 5462,
      "architecture": 5463,
      "ĠRossum": 5464,
      "ĠDeepSeek": 5465,
      "\",[": 5466,
      "\").": 5467,
      "%.": 5468,
      "(\\": 5469,
      ")}}": 5470,
      "+\\": 5471,
      "={\\": 5472,
      "Ap": 5473,
      "At": 5474,
      "DC": 5475,
      "DL": 5476,
      "EN": 5477,
      "En": 5478,
      "Early": 5479,
      "IC": 5480,
      "LA": 5481,
      "Linear": 5482,
      "NA": 5483,
      "NS": 5484,
      "Ph": 5485,
      "Pr": 5486,
      "Py": 5487,
      "Parallel": 5488,
      "Res": 5489,
      "SE": 5490,
      "VS": 5491,
      "With": 5492,
      "bound": 5493,
      "craft": 5494,
      "det": 5495,
      "dependent": 5496,
      "efore": 5497,
      "efficient": 5498,
      "fits": 5499,
      "fold": 5500,
      "fense": 5501,
      "function": 5502,
      "gen": 5503,
      "gle": 5504,
      "gation": 5505,
      "ground": 5506,
      "ho": 5507,
      "hu": 5508,
      "haps": 5509,
      "js": 5510,
      "jour": 5511,
      "jax": 5512,
      "lus": 5513,
      "lash": 5514,
      "langle": 5515,
      "mann": 5516,
      "multi": 5517,
      "num": 5518,
      "name": 5519,
      "ools": 5520,
      "power": 5521,
      "pmatrix": 5522,
      "ras": 5523,
      "rate": 5524,
      "rase": 5525,
      "rangle": 5526,
      "ses": 5527,
      "vid": 5528,
      "vision": 5529,
      "when": 5530,
      "Äģ": 5531,
      "Ġ]": 5532,
      "Ġq": 5533,
      "Ġult": 5534,
      "Ġign": 5535,
      "Ġ60": 5536,
      "Ġ95": 5537,
      "Ġtem": 5538,
      "Ġage": 5539,
      "inery": 5540,
      "erning": 5541,
      "atural": 5542,
      "hest": 5543,
      "rele": 5544,
      "Ġsal": 5545,
      "Ġsch": 5546,
      "Ġsomet": 5547,
      "Ġcam": 5548,
      "Ġcru": 5549,
      "Ġcaches": 5550,
      "Ġcached": 5551,
      "edu": 5552,
      "edy": 5553,
      "Ġolder": 5554,
      "isp": 5555,
      "Ġpapers": 5556,
      "Ġinner": 5557,
      "Ġinferences": 5558,
      "ancing": 5559,
      "Ġmim": 5560,
      "Ġmiss": 5561,
      "Ġmillions": 5562,
      "Ġanom": 5563,
      "Ġdx": 5564,
      "Ġdriven": 5565,
      "Ġdirection": 5566,
      "arv": 5567,
      "arse": 5568,
      "arth": 5569,
      "around": 5570,
      "Ġband": 5571,
      "Ġbind": 5572,
      "Ġbatch": 5573,
      "rovers": 5574,
      "Ġwor": 5575,
      "ationary": 5576,
      "Ġlies": 5577,
      "Ġnor": 5578,
      "Ġnational": 5579,
      "etch": 5580,
      "Ġhom": 5581,
      "Ġhome": 5582,
      "ung": 5583,
      "unctions": 5584,
      "rable": 5585,
      "Ġasym": 5586,
      "ĠTer": 5587,
      "embed": 5588,
      "Ġstand": 5589,
      "Ġcompl": 5590,
      "Ġcompli": 5591,
      "Ġcompatible": 5592,
      "Ġconj": 5593,
      "idjour": 5594,
      "Ġgrant": 5595,
      "Ġdepth": 5596,
      "ĠAN": 5597,
      "ĠAttention": 5598,
      "ĠApr": 5599,
      "ĠAjax": 5600,
      "aming": 5601,
      "Ġexceed": 5602,
      "Ġvaries": 5603,
      "Ġvoice": 5604,
      "ĠIN": 5605,
      "ĠCPython": 5606,
      "Ġorient": 5607,
      "ptim": 5608,
      "ptions": 5609,
      "seud": 5610,
      "Ġmode": 5611,
      "ĠSu": 5612,
      "Ġcancer": 5613,
      "perating": 5614,
      "plete": 5615,
      "ading": 5616,
      "ivari": 5617,
      "206": 5618,
      "Ġimmedi": 5619,
      "Ġimmediate": 5620,
      "Ġencompass": 5621,
      "ĠMidjour": 5622,
      "Ġring": 5623,
      "Ġunlike": 5624,
      "Ġunique": 5625,
      "Ġ12": 5626,
      "osed": 5627,
      "ĠPL": 5628,
      "ĠPer": 5629,
      "ĠPost": 5630,
      "ĠPart": 5631,
      "Ġatomic": 5632,
      "Ġnotes": 5633,
      "Ġcontrovers": 5634,
      "Ġgenerators": 5635,
      "Ġadapted": 5636,
      "ĠDep": 5637,
      "ĠDec": 5638,
      "ĠDatabase": 5639,
      "ĠDavid": 5640,
      "Ġmanual": 5641,
      "Ġmanages": 5642,
      "ĠBl": 5643,
      "ĠBrow": 5644,
      "ĠFound": 5645,
      "ĠFebru": 5646,
      "Ġprecur": 5647,
      "Ġtry": 5648,
      "Ġtruth": 5649,
      "Ġtrying": 5650,
      "Ġdescent": 5651,
      "Ġtransmit": 5652,
      "Ġchun": 5653,
      "ĠEl": 5654,
      "ĠEich": 5655,
      "ĠElect": 5656,
      "avinc": 5657,
      "portun": 5658,
      "ĠRep": 5659,
      "ĠReg": 5660,
      "ĠRuss": 5661,
      "Ġserial": 5662,
      "ideo": 5663,
      "Ġmetric": 5664,
      "ught": 5665,
      "matic": 5666,
      "ĠNot": 5667,
      "ĠNode": 5668,
      "ĠNvid": 5669,
      "Ġstatus": 5670,
      "Ġproving": 5671,
      "ĠUser": 5672,
      "jective": 5673,
      "ibilities": 5674,
      "aped": 5675,
      "appro": 5676,
      "Ġque": 5677,
      "Ġdecided": 5678,
      "Ġfeel": 5679,
      "Ġabilities": 5680,
      "Ġindent": 5681,
      "ube": 5682,
      "Ġheavi": 5683,
      "Ġattend": 5684,
      "Ġmeant": 5685,
      "Ġdoubling": 5686,
      "Ġsimulation": 5687,
      "Ġprogrammed": 5688,
      "artment": 5689,
      "Ġposes": 5690,
      "Ġprotein": 5691,
      "Ġclassify": 5692,
      "116": 5693,
      "pret": 5694,
      "Ġformer": 5695,
      "Ġmathematically": 5696,
      "context": 5697,
      "Ġdefinite": 5698,
      "nection": 5699,
      "127": 5700,
      "Ġdifferently": 5701,
      "Ġcompleted": 5702,
      "Ġinvention": 5703,
      "Ġinvented": 5704,
      "Ġsolved": 5705,
      "160": 5706,
      "161": 5707,
      "169": 5708,
      "170": 5709,
      "171": 5710,
      "Ġcalculated": 5711,
      "Ġcalculating": 5712,
      "Ġcalculator": 5713,
      "144": 5714,
      "145": 5715,
      "146": 5716,
      "compl": 5717,
      "Ġincremental": 5718,
      "Ġexecutes": 5719,
      "Ġexecutable": 5720,
      "Ġcovers": 5721,
      "Ġcoined": 5722,
      "Ġextend": 5723,
      "151": 5724,
      "Ġregist": 5725,
      "Ġyield": 5726,
      "^{(": 5727,
      "002": 5728,
      "130": 5729,
      "131": 5730,
      "132": 5731,
      "133": 5732,
      "139": 5733,
      "olicy": 5734,
      "ideriv": 5735,
      "Ġidentifying": 5736,
      "valu": 5737,
      "Ġentity": 5738,
      "Ġconcerning": 5739,
      "Ġpatient": 5740,
      "Ġlocated": 5741,
      "ĠChar": 5742,
      "Ġallocate": 5743,
      "Ġaddressed": 5744,
      "oney": 5745,
      "Ġtested": 5746,
      "Ġbrowsing": 5747,
      "Ġrealistic": 5748,
      "Ġrecognized": 5749,
      "âĪ£": 5750,
      "âĪĹ": 5751,
      "PUs": 5752,
      "Ġsmallest": 5753,
      "Ġfinds": 5754,
      "Ġpublicly": 5755,
      "Ġpolicing": 5756,
      "Ġblack": 5757,
      "Ġorganized": 5758,
      "Ġargues": 5759,
      "Ġsimilarity": 5760,
      "Ġstarts": 5761,
      "Ġimprovement": 5762,
      "Ġcontinued": 5763,
      "Ġadvance": 5764,
      "Ġadvancements": 5765,
      "calar": 5766,
      "Ġperspective": 5767,
      "ĠEnergy": 5768,
      "Ġtargets": 5769,
      "Ġsuccessor": 5770,
      "Ġsurpass": 5771,
      "Ġpaid": 5772,
      "Ġhighest": 5773,
      "ĠXML": 5774,
      "Ġdetermining": 5775,
      "Ġfocused": 5776,
      "Ġfocusing": 5777,
      "Ġportable": 5778,
      "Ġappeared": 5779,
      "Ġsubsets": 5780,
      "Ġelectronic": 5781,
      "Ġfake": 5782,
      "book": 5783,
      "Ġanswering": 5784,
      "ĠTransmission": 5785,
      "Ġchallenge": 5786,
      "Ġconsisting": 5787,
      "Ġdiscovered": 5788,
      "Ġelse": 5789,
      "Ġutilities": 5790,
      "apses": 5791,
      "Ġconstructed": 5792,
      "Ġfails": 5793,
      "Ġfailed": 5794,
      "Ġfailure": 5795,
      "Ġnormalization": 5796,
      "ISO": 5797,
      "pilers": 5798,
      "Ġmoved": 5799,
      "Ġmoves": 5800,
      "Ġmask": 5801,
      "Ġassume": 5802,
      "Ġassumptions": 5803,
      "Ġrespond": 5804,
      "Ġchallenging": 5805,
      "mathbf": 5806,
      "Ġstreams": 5807,
      "Ġenhancements": 5808,
      "ifiable": 5809,
      "ductive": 5810,
      "Ġindexing": 5811,
      "Ġappears": 5812,
      "Ġgeometric": 5813,
      "Ġprofess": 5814,
      "Conc": 5815,
      "ETF": 5816,
      "Ġpacket": 5817,
      "Ġpreventing": 5818,
      "Ġrecommended": 5819,
      "Ġopportun": 5820,
      "Ġmassive": 5821,
      "Ġcompeting": 5822,
      "Ġcomposition": 5823,
      "Ġclaimed": 5824,
      "hell": 5825,
      "ĠApple": 5826,
      "Ġdeclaration": 5827,
      "Ġbecoming": 5828,
      "Ġuniversal": 5829,
      "ĠNeural": 5830,
      "Ġdistinguished": 5831,
      "Ġbenefits": 5832,
      "Ġantideriv": 5833,
      "Ġmaterials": 5834,
      "Ġreplacing": 5835,
      "EEE": 5836,
      "Ġsociet": 5837,
      "ilitary": 5838,
      "Ġsufficiently": 5839,
      "performance": 5840,
      "Ġcontribute": 5841,
      "Ġdiscussions": 5842,
      "Ġcomparable": 5843,
      "Ġgreatly": 5844,
      "Ġdepartment": 5845,
      "Ġemphasis": 5846,
      "Ġbanking": 5847,
      "ĠColle": 5848,
      "ĠMonte": 5849,
      "Ġdenotes": 5850,
      "ahl": 5851,
      "Ġexceptions": 5852,
      "Ġhappens": 5853,
      "Ġdiagnosis": 5854,
      "Ġskills": 5855,
      "Ġtransparency": 5856,
      "Ġsubstantial": 5857,
      "Ġassistants": 5858,
      "Ġequipment": 5859,
      "Ġfiltering": 5860,
      "Ġelectricity": 5861,
      "Ġphenomenon": 5862,
      "ĠSecurity": 5863,
      "ĠBerners": 5864,
      "Ġencryption": 5865,
      "Ġenterprise": 5866,
      "equate": 5867,
      "idelines": 5868,
      "Ġratio": 5869,
      "Ġchannel": 5870,
      "ĠRFC": 5871,
      "Ġextrem": 5872,
      "Ġsymmetric": 5873,
      "solving": 5874,
      "Ġastronom": 5875,
      "Ġmagnitude": 5876,
      "Ġfavor": 5877,
      "Ġalignment": 5878,
      "Ġcontinue": 5879,
      "Ġdecades": 5880,
      "Ġfacilitate": 5881,
      "Ġforecasting": 5882,
      "Query": 5883,
      "ĠPeter": 5884,
      "Ġauthentication": 5885,
      "Ġrepeated": 5886,
      "Ġconducted": 5887,
      "Ġapplying": 5888,
      "ĠLibrary": 5889,
      "ĠFirefox": 5890,
      "Ġheuristic": 5891,
      "Ġmedicine": 5892,
      "width": 5893,
      "Ġenormous": 5894,
      "ĠPearson": 5895,
      "Ġsolely": 5896,
      "ĠJuly": 5897,
      "ymbolic": 5898,
      "Ġsomething": 5899,
      "Ġcrucial": 5900,
      "Ġcompliance": 5901,
      "ĠApril": 5902,
      "Ġimmediately": 5903,
      "ĠMidjourney": 5904,
      "ĠDepartment": 5905,
      "ĠFoundation": 5906,
      "ĠFebruary": 5907,
      "avinci": 5908,
      "ĠNvidia": 5909,
      "Ġheavily": 5910,
      "):": 5911,
      "120": 5912,
      "AA": 5913,
      "AG": 5914,
      "Ch": 5915,
      "Em": 5916,
      "Es": 5917,
      "FT": 5918,
      "GAN": 5919,
      "He": 5920,
      "Hub": 5921,
      "IA": 5922,
      "IBM": 5923,
      "Let": 5924,
      "Large": 5925,
      "MM": 5926,
      "Memory": 5927,
      "NLP": 5928,
      "PL": 5929,
      "RF": 5930,
      "Rec": 5931,
      "So": 5932,
      "Trans": 5933,
      "WG": 5934,
      "ai": 5935,
      "aut": 5936,
      "aur": 5937,
      "aMA": 5938,
      "bon": 5939,
      "da": 5940,
      "ders": 5941,
      "did": 5942,
      "davinci": 5943,
      "fers": 5944,
      "fram": 5945,
      "front": 5946,
      "fried": 5947,
      "host": 5948,
      "ij": 5949,
      "iet": 5950,
      "iam": 5951,
      "later": 5952,
      "model": 5953,
      "ners": 5954,
      "ool": 5955,
      "overy": 5956,
      "often": 5957,
      "pings": 5958,
      "rang": 5959,
      "rand": 5960,
      "ratic": 5961,
      "set": 5962,
      "size": 5963,
      "tz": 5964,
      "tically": 5965,
      "times": 5966,
      "vari": 5967,
      "vention": 5968,
      "well": 5969,
      "zen": 5970,
      "|^{": 5971,
      "}(": 5972,
      "Ã¼": 5973,
      "Î©": 5974,
      "Î¼": 5975,
      "Ġ.": 5976,
      "Ġ|": 5977,
      "Ġrol": 5978,
      "Ġ_{\\": 5979,
      "Ġ98": 5980,
      "ink": 5981,
      "era": 5982,
      "ony": 5983,
      "onym": 5984,
      "reg": 5985,
      "represent": 5986,
      "Ġsending": 5987,
      "Ġsandbox": 5988,
      "orage": 5989,
      "orism": 5990,
      "Ġclear": 5991,
      "alif": 5992,
      "alys": 5993,
      "alone": 5994,
      "Ġpus": 5995,
      "Ġpress": 5996,
      "itter": 5997,
      "itHub": 5998,
      "Ġinline": 5999,
      "Ġinjection": 6000,
      "Ġmor": 6001,
      "Ġmus": 6002,
      "Ġmilitary": 6003,
      "Ġdu": 6004,
      "Ġdial": 6005,
      "Ġdivers": 6006,
      "icles": 6007,
      "Ġbit": 6008,
      "Ġbar": 6009,
      "Ġbring": 6010,
      "Ġborrow": 6011,
      "Ġfire": 6012,
      "Ġtoler": 6013,
      "entally": 6014,
      "entral": 6015,
      "usiness": 6016,
      "Ġrepro": 6017,
      "Ġeight": 6018,
      "eled": 6019,
      "elta": 6020,
      "Ġtherm": 6021,
      "Ġnode": 6022,
      "Ġpropri": 6023,
      "Ġproceed": 6024,
      "Ġisol": 6025,
      "imately": 6026,
      "Ġhouse": 6027,
      "under": 6028,
      "Ġcomments": 6029,
      "ĠTim": 6030,
      "ĠTwo": 6031,
      "urning": 6032,
      "igital": 6033,
      "Ġstable": 6034,
      "Ġstages": 6035,
      "aged": 6036,
      "agues": 6037,
      "Ġconference": 6038,
      "Ġconferences": 6039,
      "Ġonto": 6040,
      "Ġgender": 6041,
      "Ġdevised": 6042,
      "Ġdealloc": 6043,
      "ĠAT": 6044,
      "ĠAc": 6045,
      "Ġsuffer": 6046,
      "Ġvast": 6047,
      "ĠII": 6048,
      "ĠIEEE": 6049,
      "ĠCo": 6050,
      "ĠCons": 6051,
      "ĠCNNs": 6052,
      "ĠCSS": 6053,
      "ĠCDF": 6054,
      "ĠCAP": 6055,
      "ĠCalif": 6056,
      "pty": 6057,
      "Ġmodes": 6058,
      "udio": 6059,
      "ĠTheir": 6060,
      "ĠSoci": 6061,
      "ĠSearch": 6062,
      "Ġcandid": 6063,
      "Ġleak": 6064,
      "plement": 6065,
      "Ġnearly": 6066,
      "angles": 6067,
      "Ġmodeled": 6068,
      "umb": 6069,
      "Ġsex": 6070,
      "Ġsection": 6071,
      "Ġintu": 6072,
      "opes": 6073,
      "oping": 6074,
      "opher": 6075,
      "ĠMPP": 6076,
      "Ġuns": 6077,
      "Ġ11": 6078,
      "arded": 6079,
      "ured": 6080,
      "through": 6081,
      "veloper": 6082,
      "ferred": 6083,
      "software": 6084,
      "ĠPC": 6085,
      "ĠPo": 6086,
      "grams": 6087,
      "Ġnotable": 6088,
      "Ġnotions": 6089,
      "Ġcontents": 6090,
      "Ġparsing": 6091,
      "ĠGree": 6092,
      "ĠGUI": 6093,
      "ĠGott": 6094,
      "ĠGeor": 6095,
      "ĠGitHub": 6096,
      "ĠLo": 6097,
      "programming": 6098,
      "ĠDis": 6099,
      "ĠDNN": 6100,
      "ĠDNNs": 6101,
      "ĠDOM": 6102,
      "âĢĳ": 6103,
      "Ġpreferences": 6104,
      "Ġtrig": 6105,
      "ĠWill": 6106,
      "Ġtrade": 6107,
      "Ġchip": 6108,
      "uge": 6109,
      "avy": 6110,
      "ĠOffice": 6111,
      "Ġmatter": 6112,
      "ĠJap": 6113,
      "ĠRNNs": 6114,
      "Ġresol": 6115,
      "Ġresidual": 6116,
      "Ġmetadata": 6117,
      "Ġproven": 6118,
      "ĠUs": 6119,
      "inters": 6120,
      "intelligent": 6121,
      "Ġmultit": 6122,
      "Ġmultip": 6123,
      "ysical": 6124,
      "Ġspending": 6125,
      "iber": 6126,
      "aph": 6127,
      "hence": 6128,
      "Ġcalling": 6129,
      "Ġdecom": 6130,
      "Ġsharing": 6131,
      "Ġshallow": 6132,
      "Ġspecify": 6133,
      "Ġempty": 6134,
      "ipher": 6135,
      "Ġmultiprocessor": 6136,
      "Ġheld": 6137,
      "Ġtyped": 6138,
      "Ġsimulated": 6139,
      "Ġsimulations": 6140,
      "Ġoptional": 6141,
      "Ġsubpo": 6142,
      "Ġsubmitted": 6143,
      "Ġsubdom": 6144,
      "Ġsubtasks": 6145,
      "Ġdesigners": 6146,
      "Ġpool": 6147,
      "Ġworked": 6148,
      "Ġaccessing": 6149,
      "Ġplans": 6150,
      "Ġnewer": 6151,
      "Ġclassic": 6152,
      "Ġclassical": 6153,
      "117": 6154,
      "ĠStep": 6155,
      "ĠStart": 6156,
      "new": 6157,
      "121": 6158,
      "124": 6159,
      "125": 6160,
      "Ġobjective": 6161,
      "Ġtexts": 6162,
      "Ġsolid": 6163,
      "1990": 6164,
      "164": 6165,
      "166": 6166,
      "172": 6167,
      "175": 6168,
      "178": 6169,
      "179": 6170,
      "148": 6171,
      "tee": 6172,
      "ĠUnion": 6173,
      "Ġexecuting": 6174,
      "184": 6175,
      "Ġcores": 6176,
      "++.": 6177,
      "Ġextends": 6178,
      "152": 6179,
      "153": 6180,
      "158": 6181,
      "159": 6182,
      "Ġthroughout": 6183,
      "obe": 6184,
      "Ġroots": 6185,
      "Ġhighlight": 6186,
      "136": 6187,
      "137": 6188,
      "138": 6189,
      "ynchron": 6190,
      "atorname": 6191,
      "Ġidentity": 6192,
      "Ġintroduces": 6193,
      "deep": 6194,
      "ĠKe": 6195,
      "Ġentries": 6196,
      "Ġentered": 6197,
      "Ġequality": 6198,
      "Ġ22": 6199,
      "Ġconclus": 6200,
      "Ġnovel": 6201,
      "Ġlocations": 6202,
      "reading": 6203,
      "Ġconsideration": 6204,
      "Ġconsiderations": 6205,
      "Ġautomation": 6206,
      "pson": 6207,
      "echanical": 6208,
      "Ġpromot": 6209,
      "Ġloosely": 6210,
      "Ġhandled": 6211,
      "ĠDevelop": 6212,
      "ĠDefense": 6213,
      "Ġpublications": 6214,
      "Ġ1983": 6215,
      "Ġ1986": 6216,
      "ponents": 6217,
      "Ġbackward": 6218,
      "Ġcombining": 6219,
      "Ġcontextual": 6220,
      "Ġestimator": 6221,
      "Ġtranslated": 6222,
      "Ġtranslates": 6223,
      "Ġindependence": 6224,
      "Ġvirtualization": 6225,
      "Ġ2004": 6226,
      "Ġ2005": 6227,
      "Ġ2006": 6228,
      "Ġremove": 6229,
      "Ġ1974": 6230,
      "Ġ1979": 6231,
      "Ġwidth": 6232,
      "Ġmappings": 6233,
      "Ġimportance": 6234,
      "Ġsurround": 6235,
      "Ġapproximately": 6236,
      "Ġfilters": 6237,
      "cloud": 6238,
      "Ġassociation": 6239,
      "Ġtheoretically": 6240,
      "Ġdifficulties": 6241,
      "Ġfreed": 6242,
      "anned": 6243,
      "Ġlimiting": 6244,
      "SIX": 6245,
      "Ġpasses": 6246,
      "Ġexplan": 6247,
      "Ġportability": 6248,
      "Ġinside": 6249,
      "Ġhypotheses": 6250,
      "onald": 6251,
      "Ġlabor": 6252,
      "Ġsubspace": 6253,
      "Ġoccurs": 6254,
      "large": 6255,
      "Ġconverted": 6256,
      "Ġcontinuously": 6257,
      "290": 6258,
      "Ġready": 6259,
      "Ġreading": 6260,
      "Ġfacial": 6261,
      "Ġguess": 6262,
      "Ġextension": 6263,
      "Ġexpectation": 6264,
      "Ġgovernance": 6265,
      "Ġsafe": 6266,
      "Ġrevolution": 6267,
      "Ġconsistent": 6268,
      "Ġ80": 6269,
      "Ġseparation": 6270,
      "Ġrobust": 6271,
      "ASE": 6272,
      "Comput": 6273,
      "Ġedition": 6274,
      "Ġcausal": 6275,
      "ĠReinforcement": 6276,
      "Ġconstructs": 6277,
      "ĠServer": 6278,
      "ĠServices": 6279,
      "Ġinteracting": 6280,
      "Ġactivity": 6281,
      "ĠScient": 6282,
      "Ġinfluential": 6283,
      "ĠYou": 6284,
      "Ġsensors": 6285,
      "Ġverb": 6286,
      "Ġclients": 6287,
      "Ġprecision": 6288,
      "Ġobservational": 6289,
      "Ġinterests": 6290,
      "insky": 6291,
      "Ġvulnerable": 6292,
      "Ġdelivery": 6293,
      "Ġenhanced": 6294,
      "Ġobtaining": 6295,
      "Ġinvestment": 6296,
      "Ġbelieve": 6297,
      "Ġchoice": 6298,
      "Ġchoices": 6299,
      "Ġcarbon": 6300,
      "Ġpriorit": 6301,
      "Ġprofession": 6302,
      "Ġdetecting": 6303,
      "operatorname": 6304,
      "Ġcircum": 6305,
      "Ġmalware": 6306,
      "Ġbranches": 6307,
      "ĠStandardization": 6308,
      "Ġcompetitive": 6309,
      "Ġsynapses": 6310,
      "Ġinherent": 6311,
      "Ġaccelerated": 6312,
      "emporary": 6313,
      "Ġrobotic": 6314,
      "Ġimpacts": 6315,
      "âĭ¯": 6316,
      "Ġdimensions": 6317,
      "Ġstores": 6318,
      "Ġclustering": 6319,
      "Ġvolumes": 6320,
      "Ġselected": 6321,
      "Ġattacker": 6322,
      "Ġfragment": 6323,
      "Ġthink": 6324,
      "Ġthinking": 6325,
      "Ġplaying": 6326,
      "Ġdiscussed": 6327,
      "Ġcorpora": 6328,
      "Ġbrack": 6329,
      "Ġrapidly": 6330,
      "Ġdepartments": 6331,
      "Ġdeterminant": 6332,
      "ornia": 6333,
      "Ġfamous": 6334,
      "Ġelimination": 6335,
      "Ġutilized": 6336,
      "Ġtrends": 6337,
      "Ġdealing": 6338,
      "ĠSchmid": 6339,
      "ĠMultics": 6340,
      "Ġmatching": 6341,
      "Ġhierarchy": 6342,
      "Ġhierarchical": 6343,
      "Ġpunched": 6344,
      "Ġunlab": 6345,
      "Ġhappen": 6346,
      "Ġshift": 6347,
      "Ġprotected": 6348,
      "Ġprotecting": 6349,
      "Ġwaiting": 6350,
      "Ġorders": 6351,
      "ĠMultiple": 6352,
      "Ġtransparent": 6353,
      "Ġemotions": 6354,
      "Ġsubstantially": 6355,
      "Ġphenomena": 6356,
      "Ġtemporal": 6357,
      "Ġburst": 6358,
      "ĠGNU": 6359,
      "Ġdecreases": 6360,
      "compatible": 6361,
      "Ġmonitoring": 6362,
      "Ġdiagonalizable": 6363,
      "Ġexclusive": 6364,
      "Ġexclusively": 6365,
      "Ġclean": 6366,
      "Ġrejected": 6367,
      "ĠAgency": 6368,
      "ĠMoore": 6369,
      "Ġperceptron": 6370,
      "Ġcolleagues": 6371,
      "Ġconvenient": 6372,
      "Ġinterconnected": 6373,
      "Ġpredecessors": 6374,
      "Neural": 6375,
      "systems": 6376,
      "Ġsusp": 6377,
      "rize": 6378,
      "Ġsynthesis": 6379,
      "going": 6380,
      "Ġmigration": 6381,
      "Ġwaterm": 6382,
      "Ġcomprehensive": 6383,
      "Ġdeviations": 6384,
      "Ġoccas": 6385,
      "Ġsmartphones": 6386,
      "LGOL": 6387,
      "effective": 6388,
      "Ġcells": 6389,
      "Ġpiece": 6390,
      "Ġadministr": 6391,
      "Ġmanufacturing": 6392,
      "ĠAdvanced": 6393,
      "ĠTranslate": 6394,
      "charts": 6395,
      "ĠPOSIX": 6396,
      "allucinations": 6397,
      "Ġadvertising": 6398,
      "discipl": 6399,
      "ĠJoseph": 6400,
      "Ġmultilayer": 6401,
      "Ġabsolut": 6402,
      "Ġanalogous": 6403,
      "Ġpasswords": 6404,
      "Ġindefinite": 6405,
      "Ġsophisticated": 6406,
      "Research": 6407,
      "lashAttention": 6408,
      "number": 6409,
      "ĠANSI": 6410,
      "ivariate": 6411,
      "Ġprecursor": 6412,
      "ĠCharles": 6413,
      "ĠCollege": 6414,
      "Ġextremely": 6415,
      "alysis": 6416,
      "Ġdiverse": 6417,
      "Ġthermal": 6418,
      "ĠCalifornia": 6419,
      "ĠGottfried": 6420,
      "ĠGeorge": 6421,
      "ĠJapan": 6422,
      "Ġsubdomain": 6423,
      "Ġconclusions": 6424,
      "\":": 6425,
      "))": 6426,
      "218": 6427,
      "=}": 6428,
      "AL": 6429,
      "AX": 6430,
      "Am": 6431,
      "After": 6432,
      "BERT": 6433,
      "BASE": 6434,
      "CO": 6435,
      "Cun": 6436,
      "Calculus": 6437,
      "DK": 6438,
      "Each": 6439,
      "Ent": 6440,
      "Fold": 6441,
      "Furthermore": 6442,
      "GRE": 6443,
      "HA": 6444,
      "HTTP": 6445,
      "LSTM": 6446,
      "MD": 6447,
      "More": 6448,
      "Mult": 6449,
      "Microsoft": 6450,
      "NET": 6451,
      "NIST": 6452,
      "QCC": 6453,
      "RNN": 6454,
      "Redu": 6455,
      "ST": 6456,
      "Sim": 6457,
      "VID": 6458,
      "Various": 6459,
      "WS": 6460,
      "af": 6461,
      "ael": 6462,
      "aac": 6463,
      "aust": 6464,
      "ba": 6465,
      "backs": 6466,
      "cre": 6467,
      "cies": 6468,
      "code": 6469,
      "cern": 6470,
      "cdots": 6471,
      "critical": 6472,
      "do": 6473,
      "dem": 6474,
      "dict": 6475,
      "dahl": 6476,
      "ean": 6477,
      "fl": 6478,
      "fig": 6479,
      "fail": 6480,
      "frastructure": 6481,
      "gated": 6482,
      "gamma": 6483,
      "house": 6484,
      "human": 6485,
      "hicles": 6486,
      "iB": 6487,
      "ien": 6488,
      "ias": 6489,
      "ios": 6490,
      "irable": 6491,
      "jar": 6492,
      "lif": 6493,
      "length": 6494,
      "mu": 6495,
      "no": 6496,
      "net": 6497,
      "ores": 6498,
      "oices": 6499,
      "oinform": 6500,
      "paces": 6501,
      "rons": 6502,
      "sk": 6503,
      "sub": 6504,
      "symbolic": 6505,
      "tion": 6506,
      "table": 6507,
      "upl": 6508,
      "vance": 6509,
      "video": 6510,
      "witter": 6511,
      "ype": 6512,
      "zero": 6513,
      "}/": 6514,
      "}=": 6515,
      "Î³": 6516,
      "Îµ": 6517,
      "Ïģ": 6518,
      "Ġve": 6519,
      "Ġid": 6520,
      "Ġ)}": 6521,
      "Ġ}}{\\": 6522,
      "Ġ__": 6523,
      "ĠÎĶ": 6524,
      "Ġhence": 6525,
      "Ġten": 6526,
      "Ġtries": 6527,
      "inct": 6528,
      "erb": 6529,
      "eration": 6530,
      "onical": 6531,
      "reinforcement": 6532,
      "enance": 6533,
      "orne": 6534,
      "organ": 6535,
      "Ġthes": 6536,
      "Ġcens": 6537,
      "Ġches": 6538,
      "Ġcited": 6539,
      "Ġcrimin": 6540,
      "Ġcaching": 6541,
      "although": 6542,
      "isher": 6543,
      "Ġpix": 6544,
      "Ġpick": 6545,
      "Ġpaging": 6546,
      "Ġpseud": 6547,
      "ingly": 6548,
      "Ġinad": 6549,
      "Ġmom": 6550,
      "Ġanimals": 6551,
      "Ġanything": 6552,
      "Ġangle": 6553,
      "Ġdimensional": 6554,
      "Ġdollar": 6555,
      "icom": 6556,
      "icol": 6557,
      "icode": 6558,
      "icking": 6559,
      "icularly": 6560,
      "Ġbud": 6561,
      "Ġbrid": 6562,
      "rout": 6563,
      "Ġfif": 6564,
      "Ġfib": 6565,
      "Ġfuzzy": 6566,
      "Ġwatch": 6567,
      "asking": 6568,
      "ascal": 6569,
      "Ġreplic": 6570,
      "Ġnine": 6571,
      "Ġnets": 6572,
      "chilla": 6573,
      "standard": 6574,
      "stood": 6575,
      "imit": 6576,
      "Ġhim": 6577,
      "Ġhere": 6578,
      "Ġhours": 6579,
      "unreliable": 6580,
      "rab": 6581,
      "raight": 6582,
      "ilon": 6583,
      "ilhel": 6584,
      "iliar": 6585,
      "Ġasked": 6586,
      "ĠTask": 6587,
      "ĠTwitter": 6588,
      "Ġforce": 6589,
      "emble": 6590,
      "Ġstop": 6591,
      "Ġstere": 6592,
      "Ġstationary": 6593,
      "Ġstraight": 6594,
      "Ġ(}": 6595,
      "olith": 6596,
      "oltz": 6597,
      "Ġconsequence": 6598,
      "plied": 6599,
      "Ġongoing": 6600,
      "Ġdeveloper": 6601,
      "ifferent": 6602,
      "Ġalpha": 6603,
      "ĠAD": 6604,
      "ĠAut": 6605,
      "ĠAward": 6606,
      "Ġexc": 6607,
      "Ġexport": 6608,
      "Ġsums": 6609,
      "Ġvict": 6610,
      "Ġvoices": 6611,
      "ĠCer": 6612,
      "ĠCalculus": 6613,
      "istent": 6614,
      "istant": 6615,
      "istors": 6616,
      "rive": 6617,
      "riend": 6618,
      "sey": 6619,
      "seen": 6620,
      "Ġmodular": 6621,
      "ĠSp": 6622,
      "ĠSw": 6623,
      "ĠSam": 6624,
      "ĠSup": 6625,
      "Ġcanonical": 6626,
      "ocation": 6627,
      "201": 6628,
      "203": 6629,
      "2018": 6630,
      "2024": 6631,
      "2025": 6632,
      "romise": 6633,
      "Ġseven": 6634,
      "rams": 6635,
      "Ġimper": 6636,
      "ĠMac": 6637,
      "ĠMess": 6638,
      "ĠMap": 6639,
      "ĠMicro": 6640,
      "ĠMemory": 6641,
      "ĠMinsky": 6642,
      "Ġrational": 6643,
      "Ġranging": 6644,
      "Ġunf": 6645,
      "Ġunre": 6646,
      "Ġunint": 6647,
      "Ġunpre": 6648,
      "Ġ13": 6649,
      "aced": 6650,
      "ests": 6651,
      "oses": 6652,
      "osure": 6653,
      "sole": 6654,
      "ĠParallel": 6655,
      "ĠPublic": 6656,
      "ĠPrize": 6657,
      "ĠPascal": 6658,
      "Ġclick": 6659,
      "ĠGart": 6660,
      "ĠGerman": 6661,
      "Ġarrang": 6662,
      "ĠLike": 6663,
      "ĠLond": 6664,
      "product": 6665,
      "ĠDem": 6666,
      "ĠDEC": 6667,
      "anted": 6668,
      "Ġaccompl": 6669,
      "ĠBL": 6670,
      "ĠBS": 6671,
      "ĠBing": 6672,
      "ĠBro": 6673,
      "endit": 6674,
      "ĠFile": 6675,
      "ĠFour": 6676,
      "ĠFramework": 6677,
      "ĠFran": 6678,
      "ĠFisher": 6679,
      "Ġpretrained": 6680,
      "Ġpretoken": 6681,
      "Ġpreprocessing": 6682,
      "Ġpretraining": 6683,
      "Ġtric": 6684,
      "luded": 6685,
      "ĠWar": 6686,
      "ĠWik": 6687,
      "Ġtracking": 6688,
      "arian": 6689,
      "Ġscreen": 6690,
      "ighb": 6691,
      "itioners": 6692,
      "Ġpermit": 6693,
      "Ġperplexity": 6694,
      "Ġtransitions": 6695,
      "Ġtransistor": 6696,
      "ugging": 6697,
      "ĠHil": 6698,
      "ĠHol": 6699,
      "ĠHard": 6700,
      "ĠHaw": 6701,
      "ĠEd": 6702,
      "ĠEg": 6703,
      "ĠEqu": 6704,
      "playing": 6705,
      "Ġ1969": 6706,
      "Ġ1962": 6707,
      "ĠOver": 6708,
      "ĠOperating": 6709,
      "ĠRoPE": 6710,
      "Ġmeta": 6711,
      "ĠNet": 6712,
      "ĠNavig": 6713,
      "ĠNIST": 6714,
      "Ġmember": 6715,
      "Ġkill": 6716,
      "Ġdiffers": 6717,
      "Ġvariants": 6718,
      "hereas": 6719,
      "Ġdisag": 6720,
      "ibit": 6721,
      "Ġquad": 6722,
      "Ġadds": 6723,
      "ructGPT": 6724,
      "ternatively": 6725,
      "Ġparties": 6726,
      "Ġrecording": 6727,
      "Ġevac": 6728,
      "ightly": 6729,
      "Ġproblematic": 6730,
      "Ġindirect": 6731,
      "Ġinstalled": 6732,
      "ularization": 6733,
      "Ġdiffering": 6734,
      "Ġrelies": 6735,
      "Ġoption": 6736,
      "Ġsublay": 6737,
      "Ġsubrout": 6738,
      "Ġfirms": 6739,
      "ails": 6740,
      "Ġstatisticians": 6741,
      "Ġpoor": 6742,
      "egu": 6743,
      "Ġplaces": 6744,
      "Ġcreative": 6745,
      "Ġcreates": 6746,
      "Ġclassifiers": 6747,
      "119": 6748,
      "control": 6749,
      "connection": 6750,
      "ĠVer": 6751,
      "ĠVari": 6752,
      "126": 6753,
      "Ġdeepfakes": 6754,
      "Ġarchitectural": 6755,
      "Ġphishing": 6756,
      "Ġexpans": 6757,
      "Ġexpendit": 6758,
      "Ġlayering": 6759,
      "Ġtextual": 6760,
      "195": 6761,
      "167": 6762,
      "168": 6763,
      "173": 6764,
      "174": 6765,
      "176": 6766,
      "141": 6767,
      "142": 6768,
      "143": 6769,
      "149": 6770,
      "comb": 6771,
      "Ġsigned": 6772,
      "Ġstudents": 6773,
      "tection": 6774,
      "ĠUnder": 6775,
      "ĠUnicode": 6776,
      "180": 6777,
      "181": 6778,
      "183": 6779,
      "185": 6780,
      "187": 6781,
      "Ġcoher": 6782,
      "Ġextra": 6783,
      "150": 6784,
      "154": 6785,
      "156": 6786,
      "iques": 6787,
      "iquity": 6788,
      "Ġregister": 6789,
      "Ġparallelize": 6790,
      "Ġbioinform": 6791,
      "Ġencode": 6792,
      "Ġencaps": 6793,
      "Ġaccum": 6794,
      "Ġ\\\\\\": 6795,
      "Ġintegers": 6796,
      "Ġroot": 6797,
      "Ġweap": 6798,
      "Ġampl": 6799,
      "Ġfinally": 6800,
      "oderLayer": 6801,
      "Ġreleasing": 6802,
      "Ġ32": 6803,
      "Ġkeys": 6804,
      "Ġidentifier": 6805,
      "Ġactors": 6806,
      "Ġintroduce": 6807,
      "Ġintroducing": 6808,
      "ĠKen": 6809,
      "ĠProtection": 6810,
      "Ġconcrete": 6811,
      "Ġpatches": 6812,
      "ĠChr": 6813,
      "Ġ1994": 6814,
      "Ġ1996": 6815,
      "Ġ1997": 6816,
      "Ġtermed": 6817,
      "Ġexpressing": 6818,
      "Ġsizeof": 6819,
      "Ġbehind": 6820,
      "iously": 6821,
      "reads": 6822,
      "readable": 6823,
      "Ġtokenization": 6824,
      "CPU": 6825,
      "Ġanalyst": 6826,
      "Ġanalytic": 6827,
      "Ġexistence": 6828,
      "Ġlearner": 6829,
      "psilon": 6830,
      "Ġcontained": 6831,
      "Ġcontainers": 6832,
      "aws": 6833,
      "Ġdirectories": 6834,
      "Ġcurly": 6835,
      "Ġpromin": 6836,
      "Ġgradu": 6837,
      "Ġ1982": 6838,
      "Ġ1984": 6839,
      "Ġtape": 6840,
      "Ġbackground": 6841,
      "Ġcombines": 6842,
      "Ġmechanisms": 6843,
      "Ġsupervisor": 6844,
      "Ġtranslations": 6845,
      "Ġdefense": 6846,
      "parse": 6847,
      "Ġnaturally": 6848,
      "Ġderivatives": 6849,
      "Ġ2003": 6850,
      "Ġ2007": 6851,
      "Ġspeeds": 6852,
      "Ġspeedup": 6853,
      ")},": 6854,
      "Ġ1971": 6855,
      "Ġ1978": 6856,
      "Ġbox": 6857,
      "Ġalgebraic": 6858,
      "Ġmarkup": 6859,
      "Ġpractices": 6860,
      "Ġpractitioners": 6861,
      "ĠAdobe": 6862,
      "ĠXSS": 6863,
      "Ġ}(": 6864,
      "sequences": 6865,
      "Ġattempted": 6866,
      "Ġpassing": 6867,
      "Ġquantum": 6868,
      "Ġportion": 6869,
      "Ġportions": 6870,
      "Ġsecondary": 6871,
      "Ġcounts": 6872,
      "Ġfewer": 6873,
      "Ġsubscript": 6874,
      "Ġsubsystem": 6875,
      "Ġgrown": 6876,
      "Ġmajority": 6877,
      "Ġfrequent": 6878,
      "Ġelectrom": 6879,
      "Ġtruly": 6880,
      "Ġowners": 6881,
      "ĠLeCun": 6882,
      "Ġdiver": 6883,
      "Ġcriter": 6884,
      "Ġsumm": 6885,
      "board": 6886,
      "Ġsemi": 6887,
      "Ġmaintenance": 6888,
      "Ġsafegu": 6889,
      "ĠTransformer": 6890,
      "Ġconsistently": 6891,
      "Ġmisle": 6892,
      "Ġmisuse": 6893,
      "Ġadopt": 6894,
      "Ġindicating": 6895,
      "Compiler": 6896,
      "All": 6897,
      "Ġmasking": 6898,
      "ĠQu": 6899,
      "ĠYork": 6900,
      "ĠYann": 6901,
      "Ġemerging": 6902,
      "Ġemergent": 6903,
      "Ġemergence": 6904,
      "Ġdemonstrate": 6905,
      "Ġbreaches": 6906,
      "Ġbreaking": 6907,
      "ĠJournal": 6908,
      "Ġglobally": 6909,
      "Ġinterested": 6910,
      "Ġdetailed": 6911,
      "ĠISA": 6912,
      "Ġbroadly": 6913,
      "Ġannual": 6914,
      "Ġ&-\\": 6915,
      "Ġfourth": 6916,
      "Ġseek": 6917,
      "Ġindustrial": 6918,
      "Ġinformal": 6919,
      "Ġinformally": 6920,
      "Ġinformatics": 6921,
      "Ġlacking": 6922,
      "Cont": 6923,
      "Ġpresence": 6924,
      "Ġweighted": 6925,
      "rendan": 6926,
      "Ġflat": 6927,
      "Ġflaws": 6928,
      "Ġcompetition": 6929,
      "Ġsampled": 6930,
      "Ġfastest": 6931,
      "computing": 6932,
      "ĠCommunic": 6933,
      "ĠJohnson": 6934,
      "ĠApache": 6935,
      "ĠLSTMs": 6936,
      "Ġsimplest": 6937,
      "Ġjoint": 6938,
      "^{\\|": 6939,
      "Ġturned": 6940,
      "Ġlookup": 6941,
      "Ġswitches": 6942,
      "Ġanti": 6943,
      "Ġvendor": 6944,
      "iveness": 6945,
      "ĠRLHF": 6946,
      "Class": 6947,
      "Ġcorporate": 6948,
      "Ġcorporations": 6949,
      "Ġconstantly": 6950,
      "Ġterminology": 6951,
      "Ġcomparison": 6952,
      "Ġloops": 6953,
      "Ġdeterministic": 6954,
      "Ġrecommendation": 6955,
      "Ġliterature": 6956,
      "Ġtensor": 6957,
      "Ġmitigation": 6958,
      "Ġfamiliar": 6959,
      "ĠIndian": 6960,
      "Ġaccepted": 6961,
      "Ġacceptable": 6962,
      "Ġattributed": 6963,
      "Ġregarded": 6964,
      "Ġregarding": 6965,
      "Ġpairs": 6966,
      "Ġnavigation": 6967,
      "Ġnavigational": 6968,
      "ĠSchool": 6969,
      "ĠMonty": 6970,
      "Ġagreed": 6971,
      "Ġbelongs": 6972,
      "Ġbelonging": 6973,
      "Ġreflects": 6974,
      "Ġlabeled": 6975,
      "Ġdenoted": 6976,
      "Ġcollaboration": 6977,
      "Ġconfigurations": 6978,
      "DARPA": 6979,
      "Ġadaptive": 6980,
      "Ġloaded": 6981,
      "Ġcorresponds": 6982,
      "Ġbeliefs": 6983,
      "Ġcircuit": 6984,
      "IMD": 6985,
      "Ġcrash": 6986,
      "Ġviol": 6987,
      "Ġordinary": 6988,
      "Ġletter": 6989,
      "Ġchatbot": 6990,
      "Ġjudg": 6991,
      "Ġexhibit": 6992,
      "instruction": 6993,
      "Ġburden": 6994,
      "ĠAssoci": 6995,
      "Ġincomplete": 6996,
      "Ġsettings": 6997,
      "Google": 6998,
      "}{=}": 6999,
      "âī¤": 7000,
      "Ġcryptography": 7001,
      "Ġfoot": 7002,
      "Ġcollections": 7003,
      "Ġconvenience": 7004,
      "ĠEngineering": 7005,
      "Ġdiscovering": 7006,
      "Ġdeduce": 7007,
      "Ġconcurrently": 7008,
      "Ġpredecessor": 7009,
      "speed": 7010,
      "Ġsector": 7011,
      "Ġsectors": 7012,
      "Ġculture": 7013,
      "Ġmutually": 7014,
      "Ġvanishing": 7015,
      "ĠStanley": 7016,
      "ĠStanford": 7017,
      "Ġeducational": 7018,
      "Ġmistaken": 7019,
      "Ġrectangles": 7020,
      "Ġnormally": 7021,
      "Ġautoregressive": 7022,
      "Ġsurfing": 7023,
      "Ġpsychology": 7024,
      "Ġaugmented": 7025,
      "inatorial": 7026,
      "Ġdiseases": 7027,
      "Ġremoved": 7028,
      "ĠMethods": 7029,
      "Ġcoordinates": 7030,
      "Ġreconstruction": 7031,
      "Ġtwent": 7032,
      "Ġflexible": 7033,
      "ĠACM": 7034,
      "Ġlexical": 7035,
      "ĠLLaMA": 7036,
      "ĠThompson": 7037,
      "prefixLM": 7038,
      "Ġbootstrap": 7039,
      "Ġinheritance": 7040,
      "Ġrevealed": 7041,
      "Ġexponentially": 7042,
      "Enc": 7043,
      "huber": 7044,
      "powered": 7045,
      "Ġschools": 7046,
      "Ġanomaly": 7047,
      "Ġbandwidth": 7048,
      "embedding": 7049,
      "Ġchunks": 7050,
      "Ġqueue": 7051,
      "Ġindentation": 7052,
      "pretation": 7053,
      "Ġrespondents": 7054,
      "Concat": 7055,
      "Ġantiderivative": 7056,
      "Ġrepeatedly": 7057,
      "Ġ9899": 7058,
      "onymous": 7059,
      "Ġdialog": 7060,
      "Ġfirewall": 7061,
      "Ġproprietary": 7062,
      "ĠSociety": 7063,
      "ĠWilliam": 7064,
      "Ġprofessionals": 7065,
      "Ġbrackets": 7066,
      "ĠSchmidhuber": 7067,
      "Reduce": 7068,
      "Ġvehicles": 7069,
      "ĠÎĶx": 7070,
      "Ġchess": 7071,
      "ilhelm": 7072,
      "Ġstereoty": 7073,
      "ĠMapReduce": 7074,
      "ĠGartner": 7075,
      "ĠLondon": 7076,
      "ĠFourier": 7077,
      "ĠNavigator": 7078,
      "Ġsublayers": 7079,
      "Ġbioinformatics": 7080,
      "%)": 7081,
      "%.[": 7082,
      "()": 7083,
      ")_{": 7084,
      "212": 7085,
      "214": 7086,
      "215": 7087,
      "768": 7088,
      "?\",": 7089,
      "API": 7090,
      "ALP": 7091,
      "AEs": 7092,
      "Both": 7093,
      "CI": 7094,
      "Can": 7095,
      "Des": 7096,
      "Due": 7097,
      "Delta": 7098,
      "Even": 7099,
      "HP": 7100,
      "Here": 7101,
      "IN": 7102,
      "Im": 7103,
      "IaaS": 7104,
      "ME": 7105,
      "No": 7106,
      "OR": 7107,
      "Om": 7108,
      "QK": 7109,
      "SM": 7110,
      "System": 7111,
      "TC": 7112,
      "Two": 7113,
      "Training": 7114,
      "Tube": 7115,
      "US": 7116,
      "Zero": 7117,
      "\\|^{": 7118,
      "].": 7119,
      "]).": 7120,
      "az": 7121,
      "after": 7122,
      "aided": 7123,
      "afe": 7124,
      "bur": 7125,
      "brow": 7126,
      "both": 7127,
      "better": 7128,
      "cr": 7129,
      "cil": 7130,
      "cist": 7131,
      "cles": 7132,
      "cked": 7133,
      "di": 7134,
      "database": 7135,
      "eh": 7136,
      "eature": 7137,
      "fre": 7138,
      "fect": 7139,
      "fake": 7140,
      "gra": 7141,
      "gebra": 7142,
      "grained": 7143,
      "hot": 7144,
      "how": 7145,
      "hand": 7146,
      "iem": 7147,
      "ienced": 7148,
      "jan": 7149,
      "kin": 7150,
      "ker": 7151,
      "lat": 7152,
      "lam": 7153,
      "lict": 7154,
      "mical": 7155,
      "machine": 7156,
      "memory": 7157,
      "non": 7158,
      "nes": 7159,
      "oT": 7160,
      "oy": 7161,
      "ource": 7162,
      "ook": 7163,
      "pin": 7164,
      "pion": 7165,
      "rass": 7166,
      "rust": 7167,
      "rong": 7168,
      "rgen": 7169,
      "sign": 7170,
      "some": 7171,
      "self": 7172,
      "sets": 7173,
      "sometimes": 7174,
      "tur": 7175,
      "trans": 7176,
      "vity": 7177,
      "vare": 7178,
      "view": 7179,
      "wide": 7180,
      "yles": 7181,
      "})}": 7182,
      "Ã¶": 7183,
      "Ïķ": 7184,
      "âĦ": 7185,
      "Ġ#": 7186,
      "Ġ,": 7187,
      "Ġ}}": 7188,
      "Ġ//": 7189,
      "Ġ64": 7190,
      "Ġtended": 7191,
      "input": 7192,
      "erv": 7193,
      "erce": 7194,
      "atile": 7195,
      "heets": 7196,
      "rea": 7197,
      "Ġsaw": 7198,
      "Ġsession": 7199,
      "enab": 7200,
      "encing": 7201,
      "enba": 7202,
      "ora": 7203,
      "orization": 7204,
      "Ġcut": 7205,
      "Ġcum": 7206,
      "Ġcele": 7207,
      "esides": 7208,
      "Ġour": 7209,
      "Ġovers": 7210,
      "alid": 7211,
      "alier": 7212,
      "isations": 7213,
      "Ġpet": 7214,
      "Ġpow": 7215,
      "Ġpare": 7216,
      "itivity": 7217,
      "Ġinl": 7218,
      "Ġmention": 7219,
      "Ġmedi": 7220,
      "Ġmixed": 7221,
      "Ġmouse": 7222,
      "Ġmalloc": 7223,
      "Ġanimal": 7224,
      "Ġanonymous": 7225,
      "Ġdy": 7226,
      "Ġdog": 7227,
      "Ġdie": 7228,
      "ĠdBASE": 7229,
      "ica": 7230,
      "icate": 7231,
      "ician": 7232,
      "aris": 7233,
      "arking": 7234,
      "arry": 7235,
      "rok": 7236,
      "Ġfed": 7237,
      "Ġfram": 7238,
      "Ġfaces": 7239,
      "Ġfetch": 7240,
      "leq": 7241,
      "Ġwarm": 7242,
      "Ġwomen": 7243,
      "Ġwrong": 7244,
      "asc": 7245,
      "ason": 7246,
      "omin": 7247,
      "usually": 7248,
      "utter": 7249,
      "Ġrefin": 7250,
      "Ġrewritten": 7251,
      "Ġecos": 7252,
      "elian": 7253,
      "Ġlag": 7254,
      "Ġlot": 7255,
      "Ġlost": 7256,
      "stage": 7257,
      "stances": 7258,
      "strained": 7259,
      "Ġprove": 7260,
      "Ġprojection": 7261,
      "eta": 7262,
      "Ġisolation": 7263,
      "imally": 7264,
      "imited": 7265,
      "Ġhar": 7266,
      "Ġhack": 7267,
      "Ġhuge": 7268,
      "Ġhallucinations": 7269,
      "ceived": 7270,
      "Ġcoming": 7271,
      "ulates": 7272,
      "ulators": 7273,
      "ilinear": 7274,
      "Ġbeat": 7275,
      "Ġasynchron": 7276,
      "ĠTrend": 7277,
      "ĠTIM": 7278,
      "ĠTAM": 7279,
      "urve": 7280,
      "igan": 7281,
      "Ġstyles": 7282,
      "Ġcompens": 7283,
      "abet": 7284,
      "Ġconsequences": 7285,
      "iding": 7286,
      "idimensional": 7287,
      "oted": 7288,
      "Ġgate": 7289,
      "Ġground": 7290,
      "Ġgaming": 7291,
      "Ġdefic": 7292,
      "Ġalone": 7293,
      "ĠAccess": 7294,
      "ĠASIC": 7295,
      "ĠALGOL": 7296,
      "ĠArab": 7297,
      "amm": 7298,
      "Ġsuited": 7299,
      "Ġvoid": 7300,
      "ĠIRL": 7301,
      "ĠIETF": 7302,
      "ĠIoT": 7303,
      "Ġbypass": 7304,
      "ĠCS": 7305,
      "ĠCy": 7306,
      "ĠCam": 7307,
      "ĠCav": 7308,
      "Ġorth": 7309,
      "resh": 7310,
      "Ġmodification": 7311,
      "Ġmodifying": 7312,
      "Ġmodalities": 7313,
      "ĠSometimes": 7314,
      "ĠSmall": 7315,
      "ationship": 7316,
      "Ġneighb": 7317,
      "ocal": 7318,
      "ocode": 7319,
      "ocking": 7320,
      "Ġ\"[": 7321,
      "204": 7322,
      "205": 7323,
      "207": 7324,
      "209": 7325,
      "2022": 7326,
      "ums": 7327,
      "oretic": 7328,
      "anda": 7329,
      "andon": 7330,
      "Ġseem": 7331,
      "Ġsections": 7332,
      "ĠIniti": 7333,
      "ĠInitially": 7334,
      "Ġimprec": 7335,
      "nings": 7336,
      "Ġintention": 7337,
      "Ġenfor": 7338,
      "ĠML": 7339,
      "ĠMy": 7340,
      "ĠMit": 7341,
      "ĠMos": 7342,
      "Ġunused": 7343,
      "Ġundefined": 7344,
      "Ġunstructured": 7345,
      "Ġunseen": 7346,
      "Ġ14": 7347,
      "acc": 7348,
      "ested": 7349,
      "osit": 7350,
      "osing": 7351,
      "ructions": 7352,
      "velace": 7353,
      "ĠPit": 7354,
      "ĠPort": 7355,
      "ĠPark": 7356,
      "ĠPaaS": 7357,
      "ĠPrior": 7358,
      "ĠPDF": 7359,
      "ĠPQCC": 7360,
      "ĠPromise": 7361,
      "ĠPHP": 7362,
      "Ġcontemporary": 7363,
      "ĠGal": 7364,
      "ĠGra": 7365,
      "ĠGlob": 7366,
      "ĠGAN": 7367,
      "ĠGCC": 7368,
      "ĠGOT": 7369,
      "Ġarise": 7370,
      "ebb": 7371,
      "ĠLu": 7372,
      "ĠLisp": 7373,
      "proble": 7374,
      "proport": 7375,
      "probability": 7376,
      "Ġadequate": 7377,
      "ĠDat": 7378,
      "ĠDistributed": 7379,
      "ĠDigital": 7380,
      "ĠDonald": 7381,
      "plicative": 7382,
      "dule": 7383,
      "ĠBegin": 7384,
      "ĠBusiness": 7385,
      "ĠBjar": 7386,
      "ĠBoltz": 7387,
      "ĠBrendan": 7388,
      "ĠFed": 7389,
      "ĠFPG": 7390,
      "ĠFlashAttention": 7391,
      "Ġpreval": 7392,
      "Ġpremises": 7393,
      "example": 7394,
      "Ġtrillion": 7395,
      "ĠWes": 7396,
      "ĠWilhelm": 7397,
      "Ġtraject": 7398,
      "etworking": 7399,
      "Ġsoon": 7400,
      "Ġspect": 7401,
      "Ġperman": 7402,
      "Ġtransistors": 7403,
      "ĠHP": 7404,
      "ĠHigh": 7405,
      "ĠHorn": 7406,
      "ĠHistorically": 7407,
      "ounder": 7408,
      "ouncil": 7409,
      "ĠEU": 7410,
      "ellation": 7411,
      "aving": 7412,
      "ĠOut": 7413,
      "ĠOften": 7414,
      "ensor": 7415,
      "ĠJS": 7416,
      "ĠJScript": 7417,
      "ĠJÃ¼": 7418,
      "Ġoperates": 7419,
      "ported": 7420,
      "ĠRel": 7421,
      "ĠRob": 7422,
      "ĠRiem": 7423,
      "Ġapplicable": 7424,
      "ĠNow": 7425,
      "Ġprovably": 7426,
      "ĠUK": 7427,
      "ĠUsers": 7428,
      "ĠURI": 7429,
      "ordered": 7430,
      "Ġvariations": 7431,
      "Ġvariant": 7432,
      "Ġmultivariate": 7433,
      "Ġspent": 7434,
      "Ġspam": 7435,
      "Ġspans": 7436,
      "Ġsparse": 7437,
      "Ġobsole": 7438,
      "apse": 7439,
      "Ġdecode": 7440,
      "Ġshaped": 7441,
      "ructing": 7442,
      "Inter": 7443,
      "Ġpartitions": 7444,
      "Ġlayout": 7445,
      "Ġcommons": 7446,
      "Ġspecifying": 7447,
      "Ġabandon": 7448,
      "Ġemplo": 7449,
      "Ġemulate": 7450,
      "ipped": 7451,
      "Ġmultiprocessors": 7452,
      "Ġmultiplied": 7453,
      "Ġmultiplicative": 7454,
      "inding": 7455,
      "Ġapproval": 7456,
      "ief": 7457,
      "Ġsimulate": 7458,
      "criptive": 7459,
      "Ġoptionally": 7460,
      "Ġsubword": 7461,
      "Ġprogrammable": 7462,
      "phone": 7463,
      "phabet": 7464,
      "Ġstandardize": 7465,
      "ologist": 7466,
      "Ġdesignated": 7467,
      "ega": 7468,
      "Ġworkers": 7469,
      "Ġneeding": 7470,
      "Ġplanned": 7471,
      "Ġreposit": 7472,
      "Ġclassifying": 7473,
      "Ġ2026": 7474,
      "118": 7475,
      "Ġunderstood": 7476,
      "Ġoptimally": 7477,
      "ĠStorage": 7478,
      "ĠVM": 7479,
      "ĠVirtual": 7480,
      "ĠVarious": 7481,
      "Ġinvent": 7482,
      "Ġwhereas": 7483,
      "Ġupper": 7484,
      "Ġresulted": 7485,
      "Ġphrase": 7486,
      "Ġobjectives": 7487,
      "Ġtextbo": 7488,
      "190": 7489,
      "191": 7490,
      "194": 7491,
      "196": 7492,
      "197": 7493,
      "198": 7494,
      "199": 7495,
      "1980": 7496,
      "Ġgoing": 7497,
      "bedded": 7498,
      "Ġpublish": 7499,
      "140": 7500,
      "147": 7501,
      "compil": 7502,
      "rolog": 7503,
      "Ġexecutions": 7504,
      "182": 7505,
      "186": 7506,
      "188": 7507,
      "189": 7508,
      "Ġcover": 7509,
      "Ġcovered": 7510,
      "Ġcoefficient": 7511,
      "Ġhumanity": 7512,
      "155": 7513,
      "157": 7514,
      "Ġthroughput": 7515,
      "Ġmultiplex": 7516,
      "Ġregulations": 7517,
      "Ġengage": 7518,
      "obser": 7519,
      "Ġaccident": 7520,
      "^{*": 7521,
      "ollowing": 7522,
      "Ġrot": 7523,
      "Ġroles": 7524,
      "Ġexperienced": 7525,
      "Ġgenerality": 7526,
      "Ġgeneralize": 7527,
      "Ġgeneralized": 7528,
      "versely": 7529,
      "Ġambig": 7530,
      "Ġfinitely": 7531,
      "roduction": 7532,
      "Ġprint": 7533,
      "atories": 7534,
      "Ġconstitut": 7535,
      "Ġconstitute": 7536,
      "rivate": 7537,
      "rivial": 7538,
      "Ġidentifies": 7539,
      "Ġidentifiable": 7540,
      "position": 7541,
      "ĠKa": 7542,
      "Ġentropy": 7543,
      "ĠProcess": 7544,
      "ĠProponents": 7545,
      "Ġ28": 7546,
      "Ġcharge": 7547,
      "Ġlocks": 7548,
      "Ġalloca": 7549,
      "Ġallocating": 7550,
      "Ġ1999": 7551,
      "Ġintegrity": 7552,
      "Ġracist": 7553,
      "Ġcontrolled": 7554,
      "Ġcontroller": 7555,
      "urnals": 7556,
      "ficial": 7557,
      "Ġengineer": 7558,
      "Ġtokenizers": 7559,
      "Ġrecognise": 7560,
      "Ġscales": 7561,
      "ĠWebsite": 7562,
      "Ġanalyse": 7563,
      "Ġexisted": 7564,
      "Ġdirective": 7565,
      "Ġdirectory": 7566,
      "Ġfactual": 7567,
      "rench": 7568,
      "Ġlooks": 7569,
      "224": 7570,
      "225": 7571,
      "Ġfindings": 7572,
      "ĠAnaly": 7573,
      "ĠAnalysis": 7574,
      "Ġtax": 7575,
      "Ġdependency": 7576,
      "Ġblind": 7577,
      "Ġsuperintelligence": 7578,
      "Ġorganize": 7579,
      "Ġorganizing": 7580,
      "Ġtranslating": 7581,
      "Ġmainfram": 7582,
      "Ġcharacterized": 7583,
      "Ġstartup": 7584,
      "Ġadvances": 7585,
      "Ġpopularized": 7586,
      "Ġbooks": 7587,
      "Ġmapped": 7588,
      "Ġcomputationally": 7589,
      "Ġideal": 7590,
      "Ġleaders": 7591,
      "Ġcommunities": 7592,
      "282": 7593,
      "Ġdeliber": 7594,
      "Ġdelimit": 7595,
      "ĠExecut": 7596,
      "Ġdetermines": 7597,
      "Ġconflict": 7598,
      "Ġgrouped": 7599,
      "Ġzett": 7600,
      "Ġkernels": 7601,
      "Ġattempting": 7602,
      "Ġquerying": 7603,
      "Ġconsume": 7604,
      "Ġargument": 7605,
      "Ġexplored": 7606,
      "Ġquantity": 7607,
      "while": 7608,
      "ĠiOS": 7609,
      "Ġlowest": 7610,
      "Ġcountry": 7611,
      "relationship": 7612,
      "Ġsentience": 7613,
      "Ġopening": 7614,
      "ĠConst": 7615,
      "Ġhelped": 7616,
      "Ġevaluations": 7617,
      "Ġconvert": 7618,
      "Ġconverge": 7619,
      "Ġconverges": 7620,
      "Ġmanipulated": 7621,
      "ĠArchitect": 7622,
      "urable": 7623,
      "Ġconnectivity": 7624,
      "Ġscript": 7625,
      "Ġrespective": 7626,
      "Ġindividually": 7627,
      "Ġfacility": 7628,
      "Ġrecorded": 7629,
      "Ġsemicol": 7630,
      "ĠInstructGPT": 7631,
      "Ġdescriptions": 7632,
      "Ġheaders": 7633,
      "Ġplane": 7634,
      "Ġplanes": 7635,
      "Ġupdating": 7636,
      "Ġinfinitesimally": 7637,
      "Ġbusinesses": 7638,
      "Ġmiscon": 7639,
      "Comm": 7640,
      "Ġhttp": 7641,
      "ĠMarkup": 7642,
      "apsed": 7643,
      "Ġemploying": 7644,
      "Ġemployee": 7645,
      "Ġemployees": 7646,
      "Ġconstructor": 7647,
      "Ġcrossbar": 7648,
      "Ġfailures": 7649,
      "Ġinteracts": 7650,
      "Ġinteractive": 7651,
      "Ġdigits": 7652,
      "ĠSciences": 7653,
      "Ġmole": 7654,
      "ĠAmdahl": 7655,
      "Ġassumes": 7656,
      "Ġinfluences": 7657,
      "RLHF": 7658,
      "encoders": 7659,
      "Ġmonolith": 7660,
      "Ġdownstream": 7661,
      "ĠHTTPS": 7662,
      "Ġcollectively": 7663,
      "Ġtopic": 7664,
      "Ġremained": 7665,
      "insic": 7666,
      "Ġswarm": 7667,
      "Ġcopies": 7668,
      "Ġparadox": 7669,
      "}}\\,}": 7670,
      "Ġrecurrence": 7671,
      "Ġcommercially": 7672,
      "Ġrouter": 7673,
      "Ġroutine": 7674,
      "Ġauditing": 7675,
      "Ġdraft": 7676,
      "Ġdrawn": 7677,
      "Ġcarried": 7678,
      "Ġinformed": 7679,
      "Ġprofil": 7680,
      "ĠSimula": 7681,
      "Ġsubjective": 7682,
      "Ġdocumented": 7683,
      "Ġdocumentation": 7684,
      "atabases": 7685,
      "Ġmicrocomputers": 7686,
      "Ġopin": 7687,
      "Ġopposed": 7688,
      "Ġpursu": 7689,
      "Ġformatting": 7690,
      "Ġsecret": 7691,
      "ĠWithout": 7692,
      "Ġavoiding": 7693,
      "Ġautonomy": 7694,
      "Ġaccelerate": 7695,
      "Ġslower": 7696,
      "Ġslowly": 7697,
      "Ġpoll": 7698,
      "Ġlittle": 7699,
      "Ġnaming": 7700,
      "Ġjournals": 7701,
      "Ġretrieve": 7702,
      "sharing": 7703,
      "talk": 7704,
      "Ġofficially": 7705,
      "Ġiteratively": 7706,
      "ĠPhD": 7707,
      "ĠPhot": 7708,
      "Ġantiquity": 7709,
      "Ġlinguistic": 7710,
      "Ġselects": 7711,
      "Ġtransferred": 7712,
      "Ġattackers": 7713,
      "ĠChinchilla": 7714,
      "Ġphilosophers": 7715,
      "Ġarbitrarily": 7716,
      "Ġdrivers": 7717,
      "ĠDifferent": 7718,
      "Ġcredited": 7719,
      "Ġauthorized": 7720,
      "Ġestablishes": 7721,
      "science": 7722,
      "Ġfitting": 7723,
      "Ġexhaust": 7724,
      "Ġexploit": 7725,
      "Ġexploitation": 7726,
      "Ġplayers": 7727,
      "ĠAndrew": 7728,
      "Ġcorrelations": 7729,
      "ĠmacOS": 7730,
      "ĠInterf": 7731,
      "Ġmultimedia": 7732,
      "Ġdeterminants": 7733,
      "Ġsatisfies": 7734,
      "Ġemphasize": 7735,
      "Ġmitigate": 7736,
      "Ġregardless": 7737,
      "Ġpaths": 7738,
      "Ġeliminated": 7739,
      "Ġdrawbacks": 7740,
      "Examples": 7741,
      "Ġconversion": 7742,
      "Ġepisodes": 7743,
      "Ġpunct": 7744,
      "ĠBoole": 7745,
      "Ġexploratory": 7746,
      "Ġdiagnost": 7747,
      "checking": 7748,
      "Ġcrime": 7749,
      "ĠDARPA": 7750,
      "Ġemotion": 7751,
      "Ġcourses": 7752,
      "Ġkeeping": 7753,
      "Ġequipped": 7754,
      "Ġinvestigate": 7755,
      "Ġinvestigated": 7756,
      "Ġtemporary": 7757,
      "Ġinitiative": 7758,
      "Ġcompressor": 7759,
      "ĠIsaac": 7760,
      "Ġleveraging": 7761,
      "Ġincomp": 7762,
      "Ġpreferred": 7763,
      "Ġpreceding": 7764,
      "Ġpermits": 7765,
      "ĠNoSQL": 7766,
      "Ġdecrease": 7767,
      "Ġindeed": 7768,
      "Ġextracted": 7769,
      "Ġencrypted": 7770,
      "Ġteams": 7771,
      "Ġsynchronization": 7772,
      "Ġmacros": 7773,
      "âīĪ": 7774,
      "informed": 7775,
      "Ġclearly": 7776,
      "Ġdestro": 7777,
      "Ġfalls": 7778,
      "Ġprogressively": 7779,
      "ĠMcC": 7780,
      "Ġperceptrons": 7781,
      "Ġchannels": 7782,
      "ĠRFR": 7783,
      "Ġcommittee": 7784,
      "Ġdiscriminative": 7785,
      "Ġdiscriminator": 7786,
      "Ġextreme": 7787,
      "Ġtagging": 7788,
      "Ġsaved": 7789,
      "Ġmixt": 7790,
      "Ġbalance": 7791,
      "Ġlife": 7792,
      "Ġdebate": 7793,
      "Ġexchange": 7794,
      "Ġschedule": 7795,
      "Ġradio": 7796,
      "Ġsynthesize": 7797,
      "Ġeducation": 7798,
      "Ġstrength": 7799,
      "Ġstrengths": 7800,
      "breaking": 7801,
      "ĠâĨĴ": 7802,
      "Ġeigenvalues": 7803,
      "Ġgathered": 7804,
      "ĠMachines": 7805,
      "ĠMachinery": 7806,
      "ĠWorking": 7807,
      "Ġoutperformed": 7808,
      "Ġautoregressively": 7809,
      "Ġminority": 7810,
      "Ġsurface": 7811,
      "ĠClasses": 7812,
      "Ġbreakthrough": 7813,
      "Ġpreserve": 7814,
      "ĠMathematical": 7815,
      "Ġtitled": 7816,
      "Ġproofs": 7817,
      "Ġcomprise": 7818,
      "Ġcomprises": 7819,
      "Ġaltered": 7820,
      "ĠMichael": 7821,
      "ĠMichigan": 7822,
      "Ġsoftmax": 7823,
      "Ġevolutionary": 7824,
      "Ġsyntactic": 7825,
      "Ġestablishing": 7826,
      "Reinforcement": 7827,
      "ennis": 7828,
      "enchmarks": 7829,
      "Ġannotations": 7830,
      "Ġpropaganda": 7831,
      "ambda": 7832,
      "Ġmanifold": 7833,
      "Ġspeaker": 7834,
      "Ġexpanded": 7835,
      "Ġcorruption": 7836,
      "gorithmic": 7837,
      "Ġpermutation": 7838,
      "Ġtempl": 7839,
      "Ġsales": 7840,
      "Ġmissing": 7841,
      "arvard": 7842,
      "ĠTeradata": 7843,
      "Ġconjunction": 7844,
      "ĠINGRE": 7845,
      "Ġorientation": 7846,
      "ptimization": 7847,
      "Ġcontroversial": 7848,
      "ĠBrowsing": 7849,
      "ĠElectric": 7850,
      "approx": 7851,
      "Ġprofessional": 7852,
      "Ġopportunity": 7853,
      "Ġsocietal": 7854,
      "Ġastronomy": 7855,
      "Software": 7856,
      "Transformers": 7857,
      "Ġpressure": 7858,
      "Ġmusic": 7859,
      "Ġborrowed": 7860,
      "Ġtolerance": 7861,
      "Ġreprodu": 7862,
      "Ġproceeds": 7863,
      "Ġhousehold": 7864,
      "Ġsexual": 7865,
      "Ġintuitive": 7866,
      "ĠGreek": 7867,
      "ĠLovelace": 7868,
      "ĠDisc": 7869,
      "Ġtrigger": 7870,
      "Ġmultitasking": 7871,
      "Ġsubpool": 7872,
      "ĠStephen": 7873,
      "ĠStarting": 7874,
      "ĠDevelopment": 7875,
      "Ġprioritize": 7876,
      "Ġwatermarking": 7877,
      "Ġoccasionally": 7878,
      "disciplinary": 7879,
      "Ġabsolute": 7880,
      "STDC": 7881,
      "failed": 7882,
      "Ġthesis": 7883,
      "Ġdimensionality": 7884,
      "Ġdollars": 7885,
      "Ġfibre": 7886,
      "Ġvictim": 7887,
      "ĠCerf": 7888,
      "ĠMicrosystems": 7889,
      "ĠHilbert": 7890,
      "Ġindirectly": 7891,
      "Ġsubroutine": 7892,
      "Ġsafeguards": 7893,
      "Ġmisleading": 7894,
      "Ġfootprint": 7895,
      "Ġmistakenly": 7896,
      "ALPHA": 7897,
      "Omega": 7898,
      "varepsilon": 7899,
      "âĦĵ": 7900,
      "enbaum": 7901,
      "Ġcumulative": 7902,
      "Ġceleb": 7903,
      "alieri": 7904,
      "Ġpowers": 7905,
      "Ġparent": 7906,
      "Ġecosystem": 7907,
      "ĠTrends": 7908,
      "ĠTIMIT": 7909,
      "ĠTAMER": 7910,
      "ĠCavalieri": 7911,
      "ĠGlobal": 7912,
      "ĠGOTO": 7913,
      "ĠBeginning": 7914,
      "ĠBjarne": 7915,
      "ĠBoltzmann": 7916,
      "Ġtrajectories": 7917,
      "ĠJÃ¼rgen": 7918,
      "ĠRiemann": 7919,
      "Ġcommonsense": 7920,
      "Ġemploys": 7921,
      "Ġtextbooks": 7922,
      "Ġambigu": 7923,
      "Ġzettabytes": 7924,
      "Ġmonolithic": 7925,
      "ĠBoolean": 7926,
      "ĠINGRES": 7927,
      "\";": 7928,
      "\").[": 7929,
      "&&": 7930,
      "&={\\": 7931,
      ")âĢĶ": 7932,
      "))}": 7933,
      ".}": 7934,
      ".),": 7935,
      "220": 7936,
      "211": 7937,
      "219": 7938,
      "216": 7939,
      "217": 7940,
      "213": 7941,
      "223": 7942,
      "512": 7943,
      "500": 7944,
      ":\"": 7945,
      "AC": 7946,
      "AR": 7947,
      "ASIC": 7948,
      "BN": 7949,
      "Bas": 7950,
      "Before": 7951,
      "CE": 7952,
      "CS": 7953,
      "DM": 7954,
      "DS": 7955,
      "DNNs": 7956,
      "Different": 7957,
      "EP": 7958,
      "FD": 7959,
      "From": 7960,
      "Formal": 7961,
      "GI": 7962,
      "GDP": 7963,
      "Hz": 7964,
      "High": 7965,
      "Historically": 7966,
      "HEN": 7967,
      "IG": 7968,
      "IRL": 7969,
      "Just": 7970,
      "Kh": 7971,
      "Kin": 7972,
      "LE": 7973,
      "Like": 7974,
      "MU": 7975,
      "Mon": 7976,
      "Mas": 7977,
      "Main": 7978,
      "NK": 7979,
      "Natural": 7980,
      "OB": 7981,
      "Pad": 7982,
      "RA": 7983,
      "SC": 7984,
      "SL": 7985,
      "Sc": 7986,
      "Sh": 7987,
      "Sch": 7988,
      "Self": 7989,
      "SaaS": 7990,
      "TX": 7991,
      "TCP": 7992,
      "Typically": 7993,
      "UNK": 7994,
      "VT": 7995,
      "Val": 7996,
      "VER": 7997,
      "]}": 7998,
      "]),": 7999,
      "]âĢĶ": 8000,
      "au": 8001,
      "aic": 8002,
      "aper": 8003,
      "auch": 8004,
      "babilistic": 8005,
      "can": 8006,
      "cut": 8007,
      "card": 8008,
      "case": 8009,
      "cap": 8010,
      "cular": 8011,
      "cogn": 8012,
      "coph": 8013,
      "dy": 8014,
      "deg": 8015,
      "down": 8016,
      "dden": 8017,
      "each": 8018,
      "effor": 8019,
      "focus": 8020,
      "facing": 8021,
      "gu": 8022,
      "gin": 8023,
      "gue": 8024,
      "him": 8025,
      "hind": 8026,
      "hma": 8027,
      "hibit": 8028,
      "ipe": 8029,
      "iant": 8030,
      "je": 8031,
      "kon": 8032,
      "kus": 8033,
      "ln": 8034,
      "lt": 8035,
      "lon": 8036,
      "lan": 8037,
      "las": 8038,
      "lig": 8039,
      "losed": 8040,
      "my": 8041,
      "mod": 8042,
      "mos": 8043,
      "mode": 8044,
      "network": 8045,
      "neg": 8046,
      "oura": 8047,
      "post": 8048,
      "pically": 8049,
      "rat": 8050,
      "rig": 8051,
      "rics": 8052,
      "range": 8053,
      "sm": 8054,
      "sion": 8055,
      "sim": 8056,
      "squ": 8057,
      "sens": 8058,
      "since": 8059,
      "sider": 8060,
      "shel": 8061,
      "tar": 8062,
      "tary": 8063,
      "tails": 8064,
      "ukus": 8065,
      "vol": 8066,
      "vable": 8067,
      "volution": 8068,
      "win": 8069,
      "ypt": 8070,
      "year": 8071,
      "zy": 8072,
      "zilla": 8073,
      "|}": 8074,
      "})\\": 8075,
      "âĨĴ": 8076,
      "Ġ>": 8077,
      "Ġ68": 8078,
      "Ġ65": 8079,
      "ĠÏĥ": 8080,
      "ĠÃĹ": 8081,
      "ĬĨ": 8082,
      "Ġtang": 8083,
      "Ġtech": 8084,
      "Ġtried": 8085,
      "Ġaware": 8086,
      "Ġahead": 8087,
      "inus": 8088,
      "inomial": 8089,
      "eras": 8090,
      "erated": 8091,
      "erry": 8092,
      "onic": 8093,
      "onormal": 8094,
      "onath": 8095,
      "aten": 8096,
      "atson": 8097,
      "heless": 8098,
      "heme": 8099,
      "heavy": 8100,
      "Ġson": 8101,
      "Ġshell": 8102,
      "Ġsinus": 8103,
      "ened": 8104,
      "enet": 8105,
      "orter": 8106,
      "Ġcit": 8107,
      "Ġcul": 8108,
      "Ġcasting": 8109,
      "Ġcraw": 8110,
      "Ġcats": 8111,
      "edes": 8112,
      "edical": 8113,
      "alk": 8114,
      "alog": 8115,
      "algebra": 8116,
      "ionately": 8117,
      "isk": 8118,
      "isy": 8119,
      "isual": 8120,
      "isition": 8121,
      "Ġpiv": 8122,
      "Ġpain": 8123,
      "Ġpict": 8124,
      "itate": 8125,
      "itous": 8126,
      "itives": 8127,
      "itarian": 8128,
      "Ġinn": 8129,
      "Ġinsu": 8130,
      "Ġinvert": 8131,
      "Ġinferential": 8132,
      "Ġinductive": 8133,
      "anning": 8134,
      "ancies": 8135,
      "Ġmer": 8136,
      "Ġmerg": 8137,
      "Ġmoney": 8138,
      "Ġday": 8139,
      "Ġdict": 8140,
      "Ġdriv": 8141,
      "Ġdimin": 8142,
      "Ġdiversity": 8143,
      "Ġdrop": 8144,
      "ĠdPaaS": 8145,
      "icon": 8146,
      "icens": 8147,
      "arity": 8148,
      "Ġball": 8149,
      "Ġbund": 8150,
      "Ġbott": 8151,
      "Ġbinomial": 8152,
      "rob": 8153,
      "rojan": 8154,
      "Ġfol": 8155,
      "Ġfusion": 8156,
      "Ġfood": 8157,
      "Ġfraction": 8158,
      "Ġfuel": 8159,
      "Ġfriend": 8160,
      "Ġfresh": 8161,
      "leg": 8162,
      "lem": 8163,
      "Ġwon": 8164,
      "Ġwelf": 8165,
      "Ġwanted": 8166,
      "Ġtoy": 8167,
      "asion": 8168,
      "asure": 8169,
      "omics": 8170,
      "omatic": 8171,
      "Ġrein": 8172,
      "Ġreact": 8173,
      "Ġreally": 8174,
      "Ġreinforce": 8175,
      "Ġrelying": 8176,
      "Ġreused": 8177,
      "Ġey": 8178,
      "Ġthing": 8179,
      "Ġlives": 8180,
      "Ġlacks": 8181,
      "Ġnarrow": 8182,
      "ster": 8183,
      "etun": 8184,
      "ether": 8185,
      "etime": 8186,
      "etheless": 8187,
      "Ġher": 8188,
      "Ġhor": 8189,
      "Ġhol": 8190,
      "Ġhors": 8191,
      "Ġhob": 8192,
      "Ġhope": 8193,
      "ceive": 8194,
      "rael": 8195,
      "odity": 8196,
      "odings": 8197,
      "ulf": 8198,
      "ilog": 8199,
      "ĠTD": 8200,
      "ĠTr": 8201,
      "ĠTu": 8202,
      "ĠTech": 8203,
      "ĠTrojan": 8204,
      "urrough": 8205,
      "urism": 8206,
      "urons": 8207,
      "employ": 8208,
      "igher": 8209,
      "Ġste": 8210,
      "Ġstory": 8211,
      "Ġstacks": 8212,
      "Ġstands": 8213,
      "Ġstabil": 8214,
      "Ġstake": 8215,
      "ithreading": 8216,
      "Ġcomply": 8217,
      "Ġcompound": 8218,
      "Ġ(\\": 8219,
      "agen": 8220,
      "ola": 8221,
      "plain": 8222,
      "ido": 8223,
      "idential": 8224,
      "idirection": 8225,
      "Ġgor": 8226,
      "Ġdev": 8227,
      "Ġdeception": 8228,
      "Ġdeath": 8229,
      "ĠAz": 8230,
      "ĠANNs": 8231,
      "ĠAMD": 8232,
      "ĠArea": 8233,
      "Ġdate": 8234,
      "Ġexabytes": 8235,
      "Ġsudden": 8236,
      "Ġvir": 8237,
      "ĠIaaS": 8238,
      "ĠIMS": 8239,
      "ĠCan": 8240,
      "ĠCent": 8241,
      "ĠCrit": 8242,
      "ĠCart": 8243,
      "ĠCurrent": 8244,
      "ĠCAA": 8245,
      "ĠCouncil": 8246,
      "ĠCauch": 8247,
      "ptot": 8248,
      "istance": 8249,
      "istral": 8250,
      "rier": 8251,
      "riad": 8252,
      "fortable": 8253,
      "pection": 8254,
      "udiment": 8255,
      "ĠTheory": 8256,
      "ĠSi": 8257,
      "ĠSn": 8258,
      "ĠSy": 8259,
      "ĠSut": 8260,
      "ĠSter": 8261,
      "ĠSep": 8262,
      "ĠSVM": 8263,
      "ĠSLA": 8264,
      "ĠSaf": 8265,
      "ĠSIMD": 8266,
      "ĠSora": 8267,
      "ĠSurve": 8268,
      "irm": 8269,
      "Ġwhy": 8270,
      "Ġwhites": 8271,
      "Ġleaves": 8272,
      "ade": 8273,
      "aded": 8274,
      "Ġcomputes": 8275,
      "Ġ\".": 8276,
      "202": 8277,
      "208": 8278,
      "2020": 8279,
      "2011": 8280,
      "2015": 8281,
      "2023": 8282,
      "2021": 8283,
      "ects": 8284,
      "ump": 8285,
      "rome": 8286,
      "Ġsystematically": 8287,
      "ramer": 8288,
      "ĠInform": 8289,
      "ĠInfrastructure": 8290,
      "Ġimaging": 8291,
      "Ġintend": 8292,
      "Ġintensive": 8293,
      "ults": 8294,
      "opping": 8295,
      "ĠMe": 8296,
      "ĠMor": 8297,
      "ĠMass": 8298,
      "ĠMax": 8299,
      "ĠMiddle": 8300,
      "ĠMAT": 8301,
      "ĠMFT": 8302,
      "ĠMNIST": 8303,
      "ĠMVT": 8304,
      "ĠMistral": 8305,
      "Ġrul": 8306,
      "Ġrating": 8307,
      "Ġrudiment": 8308,
      "Ġundes": 8309,
      "Ġunemploy": 8310,
      "Ġ148": 8311,
      "ogether": 8312,
      "esting": 8313,
      "this": 8314,
      "thur": 8315,
      "throp": 8316,
      "thorne": 8317,
      "velength": 8318,
      "ĠPi": 8319,
      "ĠPers": 8320,
      "ĠPier": 8321,
      "Ġnotice": 8322,
      "Ġnothing": 8323,
      "Ġcontest": 8324,
      "Ġcontact": 8325,
      "Ġcontract": 8326,
      "ĠGrok": 8327,
      "Ġgenerations": 8328,
      "Ġinteroper": 8329,
      "Ġinterdependent": 8330,
      "ĠLa": 8331,
      "ĠLarge": 8332,
      "ĠLlam": 8333,
      "ifications": 8334,
      "ificant": 8335,
      "there": 8336,
      "Ġadhere": 8337,
      "ĠDocu": 8338,
      "ĠDynamic": 8339,
      "ĠDennis": 8340,
      "anti": 8341,
      "antly": 8342,
      "Ġaccomp": 8343,
      "ortium": 8344,
      "ignals": 8345,
      "ĠBi": 8346,
      "ĠBan": 8347,
      "ĠBob": 8348,
      "ĠBaby": 8349,
      "ĠBefore": 8350,
      "ĠBurrough": 8351,
      "âĢĿ": 8352,
      "Ġfunded": 8353,
      "ĠFort": 8354,
      "ĠFTP": 8355,
      "ĠFlyn": 8356,
      "ĠFunction": 8357,
      "ĠFirst": 8358,
      "ĠFollowing": 8359,
      "ĠFukus": 8360,
      "Ġprep": 8361,
      "Ġpreference": 8362,
      "exis": 8363,
      "ĠWall": 8364,
      "ĠWhereas": 8365,
      "Ġtrace": 8366,
      "Ġtraced": 8367,
      "Ġtrading": 8368,
      "Ġdesirable": 8369,
      "Ġscra": 8370,
      "Ġscore": 8371,
      "Ġscoping": 8372,
      "Ġspeaking": 8373,
      "achus": 8374,
      "erefer": 8375,
      "Ġnetworked": 8376,
      "Ġpercent": 8377,
      "Ġperhaps": 8378,
      "Ġcham": 8379,
      "Ġchips": 8380,
      "Ġchief": 8381,
      "ugged": 8382,
      "ĠHen": 8383,
      "ĠHis": 8384,
      "ĠHost": 8385,
      "ĠHell": 8386,
      "ĠHuman": 8387,
      "ĠHugging": 8388,
      "ĠHebb": 8389,
      "ĠHarvard": 8390,
      "ĠEug": 8391,
      "ĠEarth": 8392,
      "ĠEvalu": 8393,
      "ellow": 8394,
      "Ġhash": 8395,
      "aved": 8396,
      "Ġ1930": 8397,
      "Ġ1940": 8398,
      "Ġ1936": 8399,
      "Ġ1956": 8400,
      "Ġ1959": 8401,
      "ĠOthers": 8402,
      "enses": 8403,
      "ĠThree": 8404,
      "ĠThrough": 8405,
      "ĠJe": 8406,
      "ĠJac": 8407,
      "ĠJonath": 8408,
      "Ġdevelops": 8409,
      "ĠRed": 8410,
      "ĠRub": 8411,
      "ĠRosen": 8412,
      "Ġresemb": 8413,
      "Ġserved": 8414,
      "Ġserving": 8415,
      "}}}}": 8416,
      "}}}}\\": 8417,
      "ĠNor": 8418,
      "ĠNatural": 8419,
      "ĠNVID": 8420,
      "Ġprovision": 8421,
      "Ġmemories": 8422,
      "ĠUlt": 8423,
      "introdu": 8424,
      "Ġmultidimensional": 8425,
      "Ġmultithreading": 8426,
      "Ġdisap": 8427,
      "Ġdisabilities": 8428,
      "Ġdisinformation": 8429,
      "apy": 8430,
      "Ġadditions": 8431,
      "oulli": 8432,
      "Ġdecentral": 8433,
      "Ġshorter": 8434,
      "Int": 8435,
      "Intern": 8436,
      "ternal": 8437,
      "Ġrecovery": 8438,
      "cedural": 8439,
      "Ġevident": 8440,
      "Ġcommodity": 8441,
      "Ġoverl": 8442,
      "Ġabuse": 8443,
      "Ġabelian": 8444,
      "asts": 8445,
      "asters": 8446,
      "acking": 8447,
      "Ġsettle": 8448,
      "outh": 8449,
      "Ġconsol": 8450,
      "ubiqu": 8451,
      "Ġsomewhat": 8452,
      "Ġheight": 8453,
      "Ġrelate": 8454,
      "Ġtechnological": 8455,
      "Ġdoct": 8456,
      "Ġdistances": 8457,
      "rowing": 8458,
      "Ġfirm": 8459,
      "Ġassemb": 8460,
      "Ġdesigner": 8461,
      "ausible": 8462,
      "Ġpoly": 8463,
      "current": 8464,
      "vectors": 8465,
      "ermin": 8466,
      "Ġaccessibility": 8467,
      "ĠForce": 8468,
      "Ġplag": 8469,
      "Ġplayer": 8470,
      "Ġplacing": 8471,
      "Ġpositions": 8472,
      "Ġsupply": 8473,
      "Ġsupplies": 8474,
      "Ġcreator": 8475,
      "ublished": 8476,
      "Ġpredomin": 8477,
      "Ġoptimality": 8478,
      "ceptible": 8479,
      "Ġformulated": 8480,
      "Ġformula": 8481,
      "Ġmathematician": 8482,
      "ĠStud": 8483,
      "ĠVan": 8484,
      "ĠVisual": 8485,
      "cules": 8486,
      "Ġdiscern": 8487,
      "Ġdiscarded": 8488,
      "Ġcomplement": 8489,
      "Ġinvalid": 8490,
      "Ġwherein": 8491,
      "192": 8492,
      "193": 8493,
      "1960": 8494,
      "1998": 8495,
      "Ġpublishing": 8496,
      "Ġpredictable": 8497,
      "Ġtransformed": 8498,
      "compiler": 8499,
      "Ġstudent": 8500,
      "onsider": 8501,
      "Ġcooper": 8502,
      "Ġextending": 8503,
      "unding": 8504,
      "undam": 8505,
      "Ġregions": 8506,
      "Ġregulation": 8507,
      "Ġbiom": 8508,
      "ĠAlg": 8509,
      "ĠAlternatively": 8510,
      "Ġencoura": 8511,
      "oked": 8512,
      "Ġspecifics": 8513,
      "Ġ\\,}": 8514,
      "Ġweather": 8515,
      "Ġgeneralization": 8516,
      "Ġgeneralisation": 8517,
      "Ġfinance": 8518,
      "Ġfinished": 8519,
      "Ġfinetun": 8520,
      "Ġpron": 8521,
      "Ġpric": 8522,
      "Ġprone": 8523,
      "Ġprice": 8524,
      "Ġ300": 8525,
      "Ġkept": 8526,
      "ĠComments": 8527,
      "posite": 8528,
      "defin": 8529,
      "ĠKV": 8530,
      "ĠKit": 8531,
      "ĠKur": 8532,
      "Ġentering": 8533,
      "Ġentertain": 8534,
      "Ġequals": 8535,
      "Ġhypers": 8536,
      "Ġ27": 8537,
      "Ġconcaten": 8538,
      "theless": 8539,
      "theoretic": 8540,
      "Ġnoisy": 8541,
      "Ġlocally": 8542,
      "ĠChoms": 8543,
      "ĠChrome": 8544,
      "Ġintegrate": 8545,
      "Ġintegrating": 8546,
      "Ġintegrals": 8547,
      "Ġreferences": 8548,
      "Ġreferring": 8549,
      "Ġnonzero": 8550,
      "Ġsearching": 8551,
      "Ġstories": 8552,
      "Ġstudying": 8553,
      "Ġrealm": 8554,
      "Ġrealized": 8555,
      "Ġrecognizing": 8556,
      "Ġbeings": 8557,
      "Ġconceptually": 8558,
      "Ġlogging": 8559,
      "Ġautomate": 8560,
      "iginally": 8561,
      "230": 8562,
      "231": 8563,
      "236": 8564,
      "Ġreturning": 8565,
      "Ġrandomly": 8566,
      "Ġrandomized": 8567,
      "Ġpromises": 8568,
      "rences": 8569,
      "iversal": 8570,
      "221": 8571,
      "222": 8572,
      "226": 8573,
      "227": 8574,
      "228": 8575,
      "229": 8576,
      "ĠAny": 8577,
      "ĠAnthrop": 8578,
      "irtually": 8579,
      "Ġ1988": 8580,
      "loch": 8581,
      "Ġelection": 8582,
      "Ġcombinatorial": 8583,
      "Ġinternetworking": 8584,
      "Ġsuperior": 8585,
      "Ġorganisation": 8586,
      "Ġorganisations": 8587,
      "Ġdefe": 8588,
      "parallel": 8589,
      "Ġderive": 8590,
      "Ġprevents": 8591,
      "Ġcharacterize": 8592,
      "Ġreasonably": 8593,
      "Ġobserving": 8594,
      "Ġspecialised": 8595,
      "Ġderives": 8596,
      "244": 8597,
      "Ġ2001": 8598,
      "Ġ2002": 8599,
      "Ġadvent": 8600,
      "caling": 8601,
      "calers": 8602,
      ")}\\": 8603,
      "Ġpersistent": 8604,
      "Ġ1972": 8605,
      "ĠEnc": 8606,
      "255": 8607,
      "Ġshowing": 8608,
      "Ġleads": 8609,
      "IPC": 8610,
      "IPv": 8611,
      "clips": 8612,
      "Ġdelivers": 8613,
      "ĠXHTML": 8614,
      "Ġeventual": 8615,
      "Ġassociate": 8616,
      "Ġtheorems": 8617,
      "conditional": 8618,
      "ĠExt": 8619,
      "ĠExper": 8620,
      "Ġ40": 8621,
      "typically": 8622,
      "Ġconfusion": 8623,
      "Ġconfirm": 8624,
      "SION": 8625,
      "Ġinfinitely": 8626,
      "Ġlinking": 8627,
      "Ġofferings": 8628,
      "rank": 8629,
      "ĠiPad": 8630,
      "345": 8631,
      "Ġcheap": 8632,
      "Ġinsight": 8633,
      "Ġinspection": 8634,
      "Ġimportantly": 8635,
      "Ġhypothesized": 8636,
      "ĠConference": 8637,
      "ĠConsequently": 8638,
      "ĠConvention": 8639,
      "ĠConversely": 8640,
      "Ġsubspaces": 8641,
      "Ġoccurrences": 8642,
      "Ġconverts": 8643,
      "Ġmanipulations": 8644,
      "ĠArray": 8645,
      "ĠArmy": 8646,
      "Ġreadable": 8647,
      "Ġreadability": 8648,
      "Ġconnecting": 8649,
      "Ġissued": 8650,
      "Ġguide": 8651,
      "Ġguided": 8652,
      "Ġguidelines": 8653,
      "Ġextensively": 8654,
      "Ġcustomized": 8655,
      "Ġexpectations": 8656,
      "Ġcommunications": 8657,
      "oidal": 8658,
      "Ġrevived": 8659,
      "ĠTransformers": 8660,
      "Ġinterrupted": 8661,
      "},{\\": 8662,
      "Ġ800": 8663,
      "Ġelapsed": 8664,
      "Ġseparately": 8665,
      "ĠWhat": 8666,
      "Ġimply": 8667,
      "Ġimplying": 8668,
      "Comp": 8669,
      "Ġedit": 8670,
      "Ġcausally": 8671,
      "ĠReLU": 8672,
      "apsulation": 8673,
      "Ġemployment": 8674,
      "Ġreliably": 8675,
      "Algorithms": 8676,
      "ĠScheme": 8677,
      "ISS": 8678,
      "ĠInteg": 8679,
      "Ġteach": 8680,
      "Ġdownload": 8681,
      "Ġbytes": 8682,
      "Ġmaximal": 8683,
      "Ġmaximizes": 8684,
      "Ġemerges": 8685,
      "Ġdemonstrating": 8686,
      "Ġdiagrams": 8687,
      "Ġfundamentally": 8688,
      "ANSI": 8689,
      "Ġsensory": 8690,
      "Ġbreaks": 8691,
      "Ġbrains": 8692,
      "Ġverify": 8693,
      "Ġresponding": 8694,
      "Ġbounded": 8695,
      "Ġboundaries": 8696,
      "Ġeconomy": 8697,
      "Ġinteresting": 8698,
      "Ġhypertext": 8699,
      "Ġhyperparameter": 8700,
      "Ġdominated": 8701,
      "Ġdominance": 8702,
      "Ġremaining": 8703,
      "Ġaffects": 8704,
      "inson": 8705,
      "Ġdenote": 8706,
      "Ġexternally": 8707,
      "Ġvulnerability": 8708,
      "ĠOnly": 8709,
      "ĠOnce": 8710,
      "Ġrouters": 8711,
      "Ġenhancing": 8712,
      "Ġbelieved": 8713,
      "Statistical": 8714,
      "Ġcyb": 8715,
      "Ġcyber": 8716,
      "Ġcycles": 8717,
      "Ġvolun": 8718,
      "Ġseeks": 8719,
      "Ġindexes": 8720,
      "Ġindexed": 8721,
      "Ġindustries": 8722,
      "Ġcognition": 8723,
      "Ġpriority": 8724,
      "Ġprofile": 8725,
      "Ġprofound": 8726,
      "Ġpackage": 8727,
      "Ġmicroarchitecture": 8728,
      "Ġbegun": 8729,
      "Ġminimizing": 8730,
      "Ġsecant": 8731,
      "Ġensures": 8732,
      "Ġensuring": 8733,
      "Ġcloser": 8734,
      "Ġclosed": 8735,
      "ĠWithin": 8736,
      "}}({\\": 8737,
      "Ġchecked": 8738,
      "Ġinherently": 8739,
      "Ġcompositional": 8740,
      "Ġgains": 8741,
      "Ġgaining": 8742,
      "Ġautonomously": 8743,
      "Ġaccelerator": 8744,
      "Ġaccelerators": 8745,
      "emporal": 8746,
      "ĠApplications": 8747,
      "Ġsimplifies": 8748,
      "Ġregularly": 8749,
      "Ġfairly": 8750,
      "Ġcopying": 8751,
      "link": 8752,
      "writing": 8753,
      "Ġbuilds": 8754,
      "Ġbeneficial": 8755,
      "Ġposts": 8756,
      "Ġlinguist": 8757,
      "Ġoverheads": 8758,
      "Ġconfigured": 8759,
      "âģł,": 8760,
      "Ġfulf": 8761,
      "Ġincorporating": 8762,
      "Ġincorporates": 8763,
      "Ġacquisition": 8764,
      "Ġfunctionalities": 8765,
      "ĠObjective": 8766,
      "Ġstrongly": 8767,
      "ĠAmericans": 8768,
      "scient": 8769,
      "tokens": 8770,
      "www": 8771,
      "Ġ512": 8772,
      "Ġslot": 8773,
      "Ġslightly": 8774,
      "Ġforeign": 8775,
      "Ġexploits": 8776,
      "ĠShared": 8777,
      "ĠMoreover": 8778,
      "Ġcontributed": 8779,
      "Ġterminal": 8780,
      "MPP": 8781,
      "MPAS": 8782,
      "particularly": 8783,
      "ĠâĢľ": 8784,
      "Ġlaid": 8785,
      "Ġgreatest": 8786,
      "Ġinterview": 8787,
      "Ġinterventions": 8788,
      "Ġscene": 8789,
      "Ġliterally": 8790,
      "Ġliterals": 8791,
      "Ġmitigating": 8792,
      "Ġfamily": 8793,
      "ĠIndia": 8794,
      "}}={\\": 8795,
      "Ġexperimentation": 8796,
      "Ġcriticized": 8797,
      "ĠSimilar": 8798,
      "Ġholds": 8799,
      "ĠTechniques": 8800,
      "Ġconversation": 8801,
      "Ġconversational": 8802,
      "Ġdelete": 8803,
      "Ġdelegation": 8804,
      "Ġrigid": 8805,
      "Ġmeeting": 8806,
      "communic": 8807,
      "commerce": 8808,
      "Ġwarn": 8809,
      "Ġadaptation": 8810,
      "ĠRecent": 8811,
      "Ġshifting": 8812,
      "Ġdifferentiable": 8813,
      "Ġaccounting": 8814,
      "Ġsequentially": 8815,
      "Ġcaptured": 8816,
      "Ġpolynomials": 8817,
      "Ġuplo": 8818,
      "Ġsaying": 8819,
      "Ġwavelength": 8820,
      "Ġexamine": 8821,
      "Ġexamined": 8822,
      "Ġviolation": 8823,
      "Ġcourse": 8824,
      "Ġswitching": 8825,
      "Ġexhibits": 8826,
      "evin": 8827,
      "Ġleverages": 8828,
      "Ġranks": 8829,
      "Ġranked": 8830,
      "ĠGNAT": 8831,
      "ĠBellman": 8832,
      "ĠBernoulli": 8833,
      "Ġspanning": 8834,
      "Ġqualify": 8835,
      "Ġqualitative": 8836,
      "Ġtelecommunic": 8837,
      "Ġsynchronized": 8838,
      "ministration": 8839,
      "barrass": 8840,
      "Ġinduces": 8841,
      "Ġinduction": 8842,
      "Ġinduced": 8843,
      "ideline": 8844,
      "ĠMcKin": 8845,
      "ĠMozilla": 8846,
      "Ġcommitting": 8847,
      "Ġsuperset": 8848,
      "Ġsuperscalar": 8849,
      "ĠAlphaGo": 8850,
      "Ġrounding": 8851,
      "Ġmotivated": 8852,
      "ADS": 8853,
      "blatt": 8854,
      "Ġtags": 8855,
      "Ġasthma": 8856,
      "Ġcultural": 8857,
      "Ġmovement": 8858,
      "Ġmagnetic": 8859,
      "Ġbalancing": 8860,
      "Ġexchang": 8861,
      "ĠGuidelines": 8862,
      "Ġdecade": 8863,
      "ĠProjects": 8864,
      "Ġradi": 8865,
      "Ġfacilitates": 8866,
      "Ġtuned": 8867,
      "Ġpioneer": 8868,
      "Ġpioneered": 8869,
      "Ġstdio": 8870,
      "ĠDoug": 8871,
      "ĠElements": 8872,
      "Ġseriously": 8873,
      "Ġautoencoder": 8874,
      "Ġautoencoders": 8875,
      "Ġoccup": 8876,
      "Ġpreserving": 8877,
      "ĠImageNet": 8878,
      "Ġsmartphone": 8879,
      "XXXX": 8880,
      "Ġtitle": 8881,
      "Ġoutlines": 8882,
      "Ġoutlier": 8883,
      "Ġdisease": 8884,
      "Ġquotient": 8885,
      "Ġconsciousness": 8886,
      "precision": 8887,
      "Ġcheckpoint": 8888,
      "Ġcategorical": 8889,
      "Ġjournalism": 8890,
      "Ġillustrated": 8891,
      "Ġcoordinate": 8892,
      "Ġpipeline": 8893,
      "Adversarial": 8894,
      "Assembly": 8895,
      "Perplexity": 8896,
      "Ġskew": 8897,
      "Ġskept": 8898,
      "Ġeverything": 8899,
      "Ġdatagrams": 8900,
      "ĠSubpo": 8901,
      "Ġintrinsic": 8902,
      "ĠPaLM": 8903,
      "ĠPyPy": 8904,
      "ĠDanish": 8905,
      "ĠFinally": 8906,
      "ĠFacebook": 8907,
      "Ġpartitioning": 8908,
      "Ġsubfields": 8909,
      "ĠFormal": 8910,
      "ĠCompany": 8911,
      "Ġpatentable": 8912,
      "Ġstrictly": 8913,
      "Ġhistorical": 8914,
      "Ġcarefully": 8915,
      "Ġpermutations": 8916,
      "Applications": 8917,
      "crafted": 8918,
      "detect": 8919,
      "Ġultimately": 8920,
      "Ġworse": 8921,
      "Ġasymmet": 8922,
      "Ġasymptot": 8923,
      "Ġstandalone": 8924,
      "Ġcomplicated": 8925,
      "Ġgranting": 8926,
      "Ġencompasses": 8927,
      "ĠPerl": 8928,
      "ĠReport": 8929,
      "ĠRepresent": 8930,
      "ĠRegulation": 8931,
      "ĠRussell": 8932,
      "ĠNotable": 8933,
      "Ġregisters": 8934,
      "Ġyields": 8935,
      "Ġpatients": 8936,
      "Ġsurpassing": 8937,
      "GANs": 8938,
      "Ġmoral": 8939,
      "Ġduplic": 8940,
      "Ġisolated": 8941,
      "Ġcandidates": 8942,
      "plementation": 8943,
      "ĠMPPs": 8944,
      "ĠPointers": 8945,
      "Ġmultiply": 8946,
      "aphor": 8947,
      "iphering": 8948,
      "Ġhighlighted": 8949,
      "Ġpromoting": 8950,
      "Ġcontextualized": 8951,
      "Ġsurrounding": 8952,
      "Ġexplanation": 8953,
      "Ġrobustness": 8954,
      "ĠScientific": 8955,
      "ĠYouTube": 8956,
      "Ġcircumstances": 8957,
      "Ġfragmentation": 8958,
      "Ġunlabeled": 8959,
      "Ġbursting": 8960,
      "Researchers": 8961,
      "Simil": 8962,
      "flix": 8963,
      "iBi": 8964,
      "iena": 8965,
      "ski": 8966,
      "Ġcriminal": 8967,
      "Ġpixels": 8968,
      "Ġmoment": 8969,
      "Ġbudget": 8970,
      "Ġfifth": 8971,
      "Ġwatching": 8972,
      "Ġunfair": 8973,
      "Ġunintended": 8974,
      "ĠBrooks": 8975,
      "Ġtricks": 8976,
      "ĠHawthorne": 8977,
      "ĠEgypt": 8978,
      "Ġevacuation": 8979,
      "Ġexpenditures": 8980,
      "Ġencapsulated": 8981,
      "Ġsubscription": 8982,
      "Ġdivergence": 8983,
      "Ġsummary": 8984,
      "Ġjudgments": 8985,
      "ĠAssociation": 8986,
      "EncoderLayer": 8987,
      "Ġfirewalls": 8988,
      "browser": 8989,
      "enabled": 8990,
      "Ġinlining": 8991,
      "Ġmentioned": 8992,
      "Ġmedium": 8993,
      "Ġwarmup": 8994,
      "Ġharms": 8995,
      "ĠSmalltalk": 8996,
      "ĠInitiative": 8997,
      "Ġimprecise": 8998,
      "ĠMosaic": 8999,
      "ĠPitts": 9000,
      "ĠGalton": 9001,
      "proportionately": 9002,
      "Ġprevalence": 9003,
      "ĠWestern": 9004,
      "Ġpermanent": 9005,
      "Ġobsolete": 9006,
      "Ġabandoned": 9007,
      "ĠKahn": 9008,
      "ĠProcessing": 9009,
      "ĠArchitecture": 9010,
      "ĠPhotos": 9011,
      "Ġpunctuation": 9012,
      "Ġmixture": 9013,
      "Ġtemplates": 9014,
      "Basic": 9015,
      "Monte": 9016,
      "Masked": 9017,
      "VERSION": 9018,
      "cophancy": 9019,
      "effort": 9020,
      "hima": 9021,
      "lonian": 9022,
      "shelf": 9023,
      "Ġtangent": 9024,
      "Ġsinusoidal": 9025,
      "Ġinsufficient": 9026,
      "Ġinvertible": 9027,
      "Ġdrives": 9028,
      "Ġwelfare": 9029,
      "Ġhorses": 9030,
      "Ġhobby": 9031,
      "plainable": 9032,
[...]
